#version: 0.2
a n
n g
an g
i ng
k a
Ã ©
Ġ s
a r
Ġ d
Ġ p
u n
Ġ k
a l
a t
Ġ ing
e n
Ġ l
s i
Ġ m
e r
a m
i n
o n
i k
Ã ¨
a k
a h
Ġ t
Ġ ka
i s
a w
a s
Ġ K
u r
Ġ b
a d
Ġl an
Ġ S
Ġ n
Ġ ik
Ġd i
u ng
u t
Ġ P
Ġ w
e m
Ġk ang
u l
i t
o r
e ng
y a
p un
a b
d o
a ka
d h
Ġ ng
i ka
an t
e l
Ġ B
i l
r o
u m
Ġ A
Ġik u
Ġ M
Ġ I
do c
< /
u s
a g
e t
Ġ g
Ġ T
e s
Ġ "
i r
Ġ (
Ã¨ n
u k
ar a
Ġ J
Ġ 1
u w
aw a
o l
a p
g a
Ġ j
a j
u p
Ġ D
h i
e b
k ang
a si
i y
Ġt a
i pun
g o
Ġ r
e p
i h
Ġing kang
Ã© n
a c
Ġ N
o m
i m
e k
Ġ 2
an a
Ġ L
s a
Ġs ing
Ġik i
Ġs aka
an Ã©
Ġp un
o ng
Ġ W
Ġ C
Ġ c
at an
Ġ R
Ġta un
k Ã©
e g
t en
Ġpun ika
o s
Ġd h
Ġ u
ĠI n
am b
ang an
i d
Ġ G
ad i
ang ka
Ġ ut
si a
ang g
an d
u d
i j
a y
Ġka l
ĠIn d
em b
e d
h a
Ġ ya
r i
ak Ã©
t a
0 0
up at
u h
i w
Ġ H
i a
as a
on Ã©
o k
Ġ1 9
Ġk ant
am atan
Ġkang go
upat Ã¨n
Ġdi pun
Ġm in
Ġkant hi
r a
o t
g i
Ġd adi
Ġ ana
ab upatÃ¨n
Ġmin angka
i si
Ġu ga
onÃ© sia
Ġd Ã©n
an j
ĠInd onÃ©sia
Ġut awa
on ten
Ġ f
ah an
is a
ar i
Ġs ak
al ika
ĠK abupatÃ¨n
Ġka p
Ġ F
en t
ĠJ awa
an i
am p
Ġb isa
Ã© sa
Ã¨ h
e w
in si
t an
Ġka ro
Ġw onten
a ya
Ã© r
ĠdÃ©n ing
u b
e dh
en eng
Ġ or
Ġn y
ro v
Ġd Ã©sa
w Ã¨
Ġs al
Ġ U
o p
i p
rov insi
ak en
Ġs aw
Ġsak ing
Ġp er
t er
ut ha
o g
ad h
t r
t i
at i
Ġn alika
ac amatan
) ,
an dh
o b
eng ah
an y
ĠI ng
u j
Ġ as
ĠK acamatan
am a
Ġ ak
ung g
am ar
Â ł
Ġp r
Ġor a
an c
ant i
Ã¨ wÃ¨
uw Ã©
Ġdi p
Ã¨wÃ¨ kÃ©
a u
iw it
n a
ang ing
un ung
Ġ2 00
i c
ar ang
ĠP rovinsi
e j
Ġm an
ang go
g ih
) .
i g
ĠT engah
aw i
ij i
ad os
an ipun
Ġ E
al ing
e si
Ġ O
Ġ Y
e ka
0 1
Ġ al
ak e
ar an
Ġm en
Ġsal ah
ij in
e c
Ġdi g
Ġng g
Ġ y
is an
Ġing gih
iy an
at a
Ġs a
en d
Ġw is
aka kÃ©
" ,
" .
Ã¨ k
al i
in a
Ã¨ l
Ġd uwÃ©
id ul
ĠA m
am an
o d
in t
Ġs aj
Ã© tan
ê ¦
Ã¨ r
â Ģ
u si
on al
ĠP r
Ġs iji
k e
l i
o h
Ġb asa
Ġn d
Ġ2 01
Ã© w
Ġw ong
Ġka s
Ġ amar
i b
ar t
Ġ in
ang k
Ġdi t
Ġk utha
il em
as ar
Ġ 3
s t
in is
Ġka b
ijin ing
Ġka r
l a
Ġ h
Ġp ro
anj ur
ur an
Ġkal iyan
ap an
Ġd ados
Ġ ant
aj a
Ġdh Ã¨wÃ¨kÃ©
Ġm b
Ġka ya
u g
h e
Ġs at
Ġ V
um b
uw ur
aw Ã©
Ġka c
a in
angg al
is t
Ġp en
Ġ .
o si
Ġb ab
an e
iy amb
on e
Ġsaw ijining
al a
Ġn anging
isi h
Ġw iwit
ĠD h
Ã©r angan
eng k
Ġng anti
m an
Ġkang g
o ka
ĠP er
ur u
uj ud
Ġka t
ag a
er n
Ġ aw
iyamb ak
eb u
o w
ĠW Ã©tan
er on
g r
Ġkangg Ã©
l t
Ġk r
uw ih
Ġn j
Ġs am
aka r
a i
Ġk on
g t
Ġt anggal
eb ut
o c
iy anÃ©
o v
em p
Ġf ilem
Ġ Ċ
u c
ang sa
k en
uk u
ag ara
ĠK idul
Ġu gi
Ġsat ungg
ĠA l
Ġp aling
Ġl uwih
Ġamar ga
ung an
i v
i an
in d
Ġm au
Ġ v
ĠA r
ĠK al
Ġp ang
eron ing
Ġj eneng
ah a
ar ing
ĠA n
Ġd um
l an
1 9
Ġp an
Ġk ul
l at
Ġw ar
j a
o dh
Ã©n Ã©
an an
l e
Ġng l
it a
Ġka w
u ka
d a
Ġ 4
ak an
Ġj inis
Ġ um
adh ah
e h
as t
ar ah
Ġp ara
Ġs ad
Ġp ad
Ġ an
as an
r ah
uh an
ur ut
t u
ro p
om p
Ġb anjur
al an
Ġkac amatan
un akakÃ©
iyambak ipun
Ġsaj eroning
Ġ ab
Ġk l
en dh
emb ang
t as
o f
ka t
r an
am el
on t
ar Ã©
Ġ1 8
es t
Ġm as
int ang
Ġak Ã¨h
Ġs ag
Ġd ik
ur ung
ar d
Ġg adhah
aj an
at Ã©
Ġg edh
aj eng
Ġs ap
Ġ ro
Ġp ut
Ġs ar
ik an
Ã© ng
ĠC h
Ġng anggo
Ġn ing
on ya
Ġdi b
Ã©n t
aw an
iw a
Ġkap ing
ag an
ĠM ar
Ġut awi
Ġ 5
ul o
c h
Ġb o
ik i
Ġm ain
Ġ19 9
ol o
Ã¨ s
Ġw ew
is Ã©
at u
and a
eg ara
Ġw ujud
r e
asi onal
ong an
il ih
I ng
er i
Ġd is
us t
on i
Ġm arang
er t
m a
Ġ ag
y ang
m b
s an
Ġsag ed
er si
ĠU n
Ġs es
ar ga
Ġng r
ul a
ik u
ir i
om b
Ġkal ebu
un an
Ã¨ ng
en i
emb ung
Ã© si
Ġs ab
at eng
ad an
Ġ 6
im b
in Ã©
it ik
Ġk er
Ġ ar
Ã©r ika
ul on
Ġs isih
Ġs up
or o
ar ani
or i
ĠK utha
ka r
ir a
Ġp Ã©rangan
angan an
um p
at h
i ya
ang s
un d
Ġs an
k i
eb et
a ir
ĠM al
ĠAm Ã©rika
Ġp angg
il m
Ġ( "
it urut
Ġp eng
y an
ol ah
ant an
Ġm l
ur ip
Ġ ap
im p
olo gi
ej a
Ġsam pun
er b
r ing
in dh
uk si
ĠW al
Ġbab agan
Ġy Ã¨n
engk on
gr is
ĠB ar
Ġbo ten
asi l
Ġn agara
Ġdi w
akar ta
" )
Ġt et
Ġ ad
Ù İ
us un
ul is
Ġ &
ep ang
Ġas al
e v
Ġb al
Ġt r
Ġ 7
aka ken
Ġl iyanÃ©
Ġt il
ul an
ĠL or
Ġya iku
ung ka
ĠK ulon
ĠA g
Ġp am
ĠI s
em u
ĠB r
Ġm usi
Ã¨n i
Ġt in
Ã© l
ĠIng gris
ad a
Ġw ek
Ġ âĢ
Ġj am
Ġ at
am i
Ġs ek
ĠP ur
ĠS al
Ã¨ t
anj eneng
Ġm is
Ã©w Ã©
ing g
Ġmen yang
Ġb aka
Ġgedh Ã©
uk an
g en
ĠS t
one sia
Ġpad ha
t ur
u dh
Ġt el
Ġl um
er s
Ġp iyambakipun
ar anÃ©
ĠG r
Ġt uw
aka ke
il ik
Ġs ep
iy ang
w a
emb er
Ġ Ã
ir ang
Ġs p
ĠKal im
ĠdÃ©n Ã©
Ġd onya
m p
ang et
Ġ 8
ur ahan
ar eng
u an
anc is
Ġka g
eg es
Ġm ung
Ġwew engkon
ang un
or m
Ġ of
o y
Ã© s
Ġp apan
Ġt um
it as
ĠKalim antan
l am
Ġs t
Ġp anganan
ak si
ĠN anging
un a
ĠInd onesia
in e
Ġdi arani
ur a
ka kÃ©
Ġg r
ar is
g an
Ġsatungg aling
ec amatan
Ġ uk
Ġdh Ã©wÃ©
un t
ag ing
Ġj uru
Ġ19 8
Ġbaka l
Ġ Z
f i
p r
Ġdi c
Ġm angsa
Ġs aha
angk ung
Ġp ar
n e
[ [
t or
Ġkas ebut
] ]
ah i
Ġ -
al adan
on an
ĠK ar
Ġ 9
Ġmis uwur
do s
un i
ac ara
al ia
Ġb er
any u
iv ersi
u ari
ĠDh Ã¨wÃ¨kÃ©
ac ah
em en
ĠN ur
ul i
Ġk et
aw e
ĠS ur
ab a
it an
ĠJ epang
. .
Ġpr aja
er man
ter n
Ġt er
Ġdh uwur
ĠN alika
isan an
Ġ urip
or t
Ġj aman
Ġc ilik
Ġt an
Ġt ek
Ġt embung
ĠWal anda
ang i
aka t
ut an
ĠK r
Ã© k
Ġas ring
Ġman Ã¨h
Ġm al
a v
Ġk ep
Ġum um
h ah
Ġl angkung
Ġka dos
w ar
Ġdig awÃ©
; /
m i
Ġt iyang
Ġ19 7
on s
ĠS um
amar Ã©nt
Ġ1 0
Ġdi l
on o
Ġ angg
in ten
ut a
ĠB at
Ġk el
us an
Ġb eb
ĠS aw
ern ah
iwit i
eng g
Ġkap ernah
Ġp ungka
ag u
Ġsab en
Ġj iwa
Ġ isih
Ġka d
Ġsa iki
Ġdi r
er at
or d
arÃ© kat
Ã¨ si
m e
ay an
00 0
Ġ x
Ġp rovinsi
ud u
aw ang
i f
at ara
en c
ĠJ akarta
Ġ /
Ġwar na
Ġ1 7
Ġdh usun
Ġp as
Ã© da
Ġ ol
ĠS arÃ©kat
wÃ¨ gen
Ġc acah
ung sa
ul u
ĠB l
ĠNur wÃ¨gen
Ġdum unung
Ġk ur
Ġk uw
ing an
u a
Ġl iya
l ah
dh ang
s p
Ġ un
Ġn am
Ġb i
Ġd aging
unung i
Ġdipun p
Ġ anggo
on om
b r
Ġ19 6
a ut
Ġdipun s
Ġab ad
ak u
Ġ1 2
ĠS p
Ġant aranÃ©
ĠA ng
dh uksi
ol a
at es
Ġ1 5
Ġdh ateng
Ġngg unakakÃ©
ĠN g
Ġ ir
Ġl aladan
Ġnd unungi
Ġtil pun
ĠAmÃ©rika h
ĠÃ ī
ur i
Ġs in
ĠS M
lat ah
oka kÃ©
Ġb anyu
Ġp ik
Ġg el
Ġta u
ud i
urung Ã©
ay u
Ġt eges
en a
Ġt im
Ġ [[
ag i
Ġman ungsa
Ġsaw isÃ©
ĠS em
er an
en al
ĠA d
ĠS el
ĠM an
ĠI I
un Ã©
uh akÃ©
ist em
Ġsup aya
Ġk idul
Ġmusi k
Ġk omp
en ing
l and
ĠA s
Ġsatungg al
b um
og ra
Ġb ahan
Ġn om
h ar
Ġg ol
n Ã©
Ġ1 6
e f
ĠUn iversi
Ġkat hah
on d
amp ung
angg ep
ak s
Ġl ajeng
Ã©w an
u e
et an
k m
aw ar
or a
ab ar
ub l
Ġdi j
Ġwek tu
u gi
amb ah
Ġ19 4
si l
Ġuk uran
Ġs w
ĠA b
Ġd an
Ġp el
Ġl air
Ġanggo ta
ĠPr ancis
rah Ã©
k t
Ġt latah
Ġp em
y u
is or
Ġamar gi
a e
Ġut ama
Ġsar ta
Ġg awÃ©
Ġ en
Ġc ara
Ġkab Ã¨h
asar akat
ĠP ol
Ġn dh
anj ar
any ar
Ġant aw
ant os
ro dhuksi
m u
og ya
amb ar
Ġdipun t
dh Ã¨n
Ġm iturut
Ã¨ mb
ĠS a
el l
er a
ad hi
Ġ ob
Ġp ir
ĠT im
kar ta
Ġk om
D h
Ġl el
Ġsek olah
in i
il l
ĠM as
k an
aw arga
eg i
d al
ogya karta
ay ang
t h
ĠK ap
2 0
si r
Ġn atÃ©
Ġp ap
Ã¨ kakÃ©
ang ga
y ar
Ġb anget
Ġkal ih
umb er
Ġl oro
K abupatÃ¨n
Ġm il
i ga
o j
t ar
ĠG unung
ĠI t
Ġd amel
Ġap ik
andh i
Ġc ar
us aha
am e
Ġl em
ap a
al ah
Ã¨mb er
Ġl intang
areng an
s on
ĠK anggo
r ap
Ø §
d i
er o
ika si
ti f
n i
eb at
Ġr es
in an
2 00
p a
a un
Ġm asarakat
amb ang
s ara
it h
Ġp amarÃ©nt
ĠK eb
Ġkl ub
ĠS ul
ent uk
ĠJ erman
ogra fi
is asi
Ġp ul
Ġp anjeneng
P r
Ġp at
ĠP ro
Ġd ina
im a
Ġ2 0
am pun
ud aya
ac em
ĠK or
r at
Ġdip rodhuksi
al l
Ġ amb
ĠW an
Ġkab upatÃ¨n
ijin Ã©
et h
Ã¨ ri
un akake
e ga
r y
Ġ19 5
er ang
ĠS an
Ã© p
ĠIs lam
ast ra
Ġ1 1
Ġses amb
Ġd e
m ad
er asi
Ġan ak
T he
l u
Ġm angg
in ipun
Ġdi d
un j
Ġd ening
Ã©si dhÃ¨n
ĠB anjar
Ġkal urahan
Ġs istem
Ġl or
ob er
en e
b alan
a f
ri c
Ġum ur
ing k
iy os
ab ung
si onal
Ġper t
aring an
Ġpen y
ud a
Ġm ar
Ġw ad
Ã© t
Ġpungka san
ĠR om
at ur
ungg al
ĠN ov
ek e
Ġ angka
ri b
it i
Ġk udu
Ġ( )
ung k
l as
f r
S aj
Ġag eng
kt ober
Ġng andh
h o
Ġt ul
odh ong
il an
Ġdik enal
Ġ ul
Ġnam ung
Ġm et
Ġs ang
ĠJ an
Ã©ng ga
Ġro ng
eb on
Ġb uku
is me
Ġsesamb ungan
om ah
ati f
e y
ad eg
Ã¨ ter
Ġ1 4
in akaken
ri p
Ġkul awarga
Ġk em
ĠS o
ĠK ab
onom i
al ang
ĠSem arang
ag el
edh asar
Ã¨si pun
at on
um i
Ġp isanan
A n
imb ang
j id
un c
ir an
ĠO ktober
Ġt he
ti v
Ġ1 3
ubl ik
e x
er ah
Ġk Ã©wan
Ġs ur
Ġn ama
Ġka m
Ġs en
ĠS h
ĠP ang
at ar
ĠB and
Ã©r ang
rop ah
K ecamatan
ĠS ep
ĠT an
Ã© ja
Ġs em
ĠUniversi tas
w an
tr ik
i e
ĠJ uli
Ġ and
Ġw ulan
Ġteges Ã©
ĠIt alia
ĠP ar
u y
a z
Ġ )
ĠB asa
oc ah
Ġlum rahÃ©
Ġs et
Ġnom er
c ara
ĠL e
ĠM in
emb ar
Ġ ,
Ġsad urungÃ©
Ġsap Ã©rangan
Ġk h
Ġs as
Ã¨ hi
Ġp end
un dh
es s
tr on
Ġs el
op ul
ĠP at
ĠD Ã©nÃ©
Ġsa Ã©ngga
1 0
er na
ĠA k
Ġr ika
ust us
ak oni
ab r
Ġkal ebet
ĠJ uni
I n
l o
ung ai
il i
er ika
ĠA w
isi pun
Ġ hi
Ġ adh
Ġdum ugi
u al
Ġ200 8
up uk
Ġd uw
ĠB any
eg al
y ah
ant en
g al
Ġsp Ã©si
K ar
ew eke
e an
y at
Ġm ig
ampun ipun
b asa
Ġb iy
ol usi
Ġ anyar
Ġkr ajan
Ġpir anti
ĠB ali
h an
Ġp asi
Ġasal Ã©
li gi
Ġ Q
j an
Ġk ol
Ġ ib
Ġu d
Ù Ħ
ĠS ing
Ġg l
angka t
Ġput ih
A l
Ġw ig
Ġk es
ĠInd ia
ĠY ogyakarta
od e
ĠJan uari
Ġka sil
f orm
ĠAg ustus
eng en
i dh
Ġdi m
j o
Ġper ang
1 8
t on
ĠU t
Ġn asional
anÃ© ka
Ġp ol
ĠP iyambakipun
ĠMar et
uj u
any i
5 0
ĠÃī ropah
Ġg unung
Ġkon s
ĠA sia
Ġ200 9
ant ri
tern asional
Ġng isor
Ġkar ya
Ã© m
in c
Ġkur ang
un ani
Ġr ac
Ġaw ak
Ġtin emu
Ã ª
ĠP i
Ġl agu
Ġkuw i
Ġnd uw
Ġ omah
ab at
ing kat
upat en
Ġ X
s e
Ġkal i
Ġm awa
un e
Ġmal ih
s Ã¨s
ka l
eb ar
Ġp any
pr il
ay ah
Ġj aringan
ad Ã©
Ġw Ã©tan
Ġp ulo
Ã¨n Ã¨hi
o u
Ġ '
at ra
Ġ aj
iy atan
ep ung
iw ak
Ġak sara
r ad
Ġantaw isipun
ê §
ob ot
y o
Ġm ligi
Ġor gan
Ġk ed
Ġsan Ã¨sipun
Ġm iwiti
il ah
Ġdipun d
a us
ok ia
ĠN asional
Ġy uta
um Ã¨n
as ti
k o
r is
Ġmen ika
Ġnd uwÃ©
Ġt ok
amp ang
ĠA pril
Ġol Ã¨h
n o
Ġdipun w
Ġman awa
Ġm anÃ©ka
Ġd r
Ġk odh
N alika
ĠJ eneng
âĢ Ŀ
Ġs asi
l in
pun ika
ĠAr ab
ĠspÃ©si es
w ong
Ġ acara
Ġ19 3
ic h
ag ari
anc a
gr am
Ġ201 0
Ġtek an
Ġr um
ĠC ina
as ane
am at
ek s
Ġs uku
Ġb ilih
Ġag ama
o ur
Ġng Ã¨l
er m
Ġt Ã©
amb ut
Ġ200 7
Ġwig ati
iyan e
Ġm apan
r it
Ã¨ i
Ġb adh
Ġal bum
t o
Ġp opul
Ġpangg onan
ĠW onten
Saj arah
ĠM ah
r ag
et ara
s el
Ġ3 0
ĠP an
Ġ iwak
eb ab
ĠA na
ĠâĢ ĵ
ĠK ali
Ġsam i
Ġt aksi
ant uk
Ġj al
Ã©w a
Ġl ap
ĠP en
er al
Ġp iyambak
Ġkon dhang
ĠP anjeneng
andh a
A r
Ġp it
q u
ĠB al
Ġp es
Ġdum adi
ĠP ulo
ab u
ut h
Ġ201 1
Ġ up
Ġw it
la ir
ĠPol en
Ġng antos
el as
Ġt engah
ĠD ew
ol ong
Ġngg awÃ©
Ġs ijinÃ©
ĠA c
ek si
b y
Ġn amp
Ġ Ø
Ġg odhong
Ġm er
ĠSaw isÃ©
id a
Ġman awi
B asa
ati on
Ġgel ar
ara jan
Ġtaksi h
Ġjeneng Ã©
il is
âĢ Ļ
Ù Ĳ
Ġml ebu
Ġ ij
Ġs eni
Ã¨ p
ĠP em
us at
Ġ op
at in
ot or
à ¤
ĠF ilm
Ã¨l u
oka l
Ġtum rap
Ġka k
Ġwek dal
ej o
osi si
Ġs er
Ġp amb
Ġdi anggep
m ar
l or
il a
ĠPer ang
Ġdig awe
Ġsaw atara
âĢ ĵ
a Ã©
us u
Ġtin imbang
i at
asi s
Ġr asa
Ù Ĵ
Ġkap isan
Ġ isi
ĠK at
Ã© a
Ġpik antuk
is e
Ġb udaya
Ġpro d
1 4
r on
Ġ am
ant ung
ĠN eg
Ġm ak
Ġ200 6
Ġm ir
ri ya
atÃ© lan
Ġpan as
s ur
ĠC ir
is trik
Ġdig unakake
Ġd awa
Ġtr adhi
ant u
ol og
ĠH ulu
Ġm Ã¨lu
Ġrac akÃ©
ĠM Ã¨i
angg ung
m m
it ar
k er
Ġk u
Ġmen ang
Ġsaj arah
Ã©s Ã¨mber
usaha an
c hi
Ġ2 5
Ġbadh Ã©
Ġm r
aka ra
t ember
z a
Ġmas akan
im an
ĠY unani
Ġlem ah
war eja
e a
ĠâĢ ľ
n ik
ĠI ki
uw uhan
ed a
y asa
ak i
ĠN ew
on y
Ġk e
ĠC ar
ĠS ungai
Ġw oh
Ġk it
Ġng asil
ac h
" ),
ĠSal iyanÃ©
Ġp emb
ust ri
n y
s ari
Ġp abr
Ġdig unakakÃ©
Ġ em
udh ul
l y
us tr
Ã© d
Ġt o
Ġput ra
Ġpul itik
ut er
fr ika
ul us
ĠTan ah
Ġng en
ĠT r
si s
Ã¨ d
ĠPur wareja
ĠSel atan
1 5
19 9
Ġs osi
ajeng ipun
Ġ200 5
Ġnj al
h ir
t e
2 01
Ġtul isan
ar ep
ant hi
ĠDh Ã©sÃ¨mber
ĠBar at
s es
ĠM ad
j i
ĠS ek
Ġ200 4
ĠE n
ĠT he
Ġker ep
Ġkul it
Ġtan pa
ĠL i
Ġcacah Ã©
in o
w is
Ġdh asar
Ġg ar
in al
Ġb Ã©da
e o
em e
iw at
eka r
Ġres mi
1 2
ĠH ar
ung si
et a
e i
Ġdh um
Ġn ulis
" ).
Ġsar ana
Ġtuw uhan
ĠSep tember
K al
ka p
Ã¨ w
eg ori
f f
Ã¨r Ã¨ng
Ġtet ep
ĠT h
Ġs uw
Ġj udhul
ĠMal ang
Ġ2 4
ot o
ĠKor Ã©a
Ġng al
ĠM aj
l im
ur n
un ing
Ġdi si
eka l
r eng
Ġ Ù
ĠS ab
Ġ201 2
Ġl iyane
ĠJ oh
ĠCir ebon
Ġ art
Ġm ed
g il
Ġm Ã¨ter
dh a
Ġdhum ateng
Ġj ag
Ġpun j
ĠM us
ĠPr Ã©sidhÃ¨n
Ġb ocah
or an
n is
Ġn agari
c a
Ġp ag
ak ter
it o
angg ih
Ġkul on
Ġb ap
am mad
Ġka yu
at e
Ġ19 2
Ġb in
N g
Ġs ed
Ġp al
Ġm odh
ĠA frika
Ġm ul
ga y
esi k
Ġb obot
j u
Ġm at
Ġs uk
Ġwar ga
any ol
k u
Ã ¥
3 0
ro m
Ġpen dh
ĠNeg eri
el eng
Ġm od
iy ah
ĠD onya
Ġ endh
ac k
ĠS ak
um an
ac a
Ġdipun b
et er
imp in
Ġp in
Ġk ej
ĠSum atra
ĠS am
Ġ Ã©k
angs ung
Ġwad on
Ġ z
omp ok
ak yat
ĠB er
ĠK om
do l
Ġt ahan
S aw
ĠK l
Ã©nt uk
d e
ĠS uka
Ġaw ujud
aw esi
Ġaw it
Ġs eneng
ah aken
Ġpar aga
u ga
il ing
ilih an
ates an
ut up
ĠD a
ad e
ĠO r
S M
ĠS er
ah li
o ta
Ġant ara
si t
Ġro ti
Ġcar ita
Ù Ĩ
Ġp aw
p on
Ġr aja
Ġlan ang
agel ang
Ġm ula
art Ã©
ulo an
i z
ĠP am
umb u
er ta
ĠP al
anjur Ã©
Ġrika la
s u
Ġs ip
eng an
amp ur
in asi
ĠTim ur
er c
ĠT egal
u ara
Ġl iwat
on a
Ġpro f
Ġd inten
aring i
ent e
ĠK aj
Ġn ud
as ari
Ġmangg on
Ġp irang
Ġgol ongan
h t
Ġs ub
emb angan
ĠP ad
ĠM agelang
Ġk eb
al am
Ġab ang
Ġtel ung
Ġw erna
ĠP as
Ġw atara
Ġg eg
i ah
ĠS ad
ĠS aka
amp il
Ã¨k s
Ġdit em
ĠpamarÃ©nt ahan
it y
ĠNov ember
Ġdh eweke
ĠK lat
ĠT V
1 7
Ã ³
Ã¨ br
ĠK a
Ġgr am
ĠK am
el a
ĠR aja
ĠpÃ©rangan ing
aw at
ĠM a
ĠKeb umÃ¨n
uk um
Ġwiwit an
Ġgr up
in s
ĠK edh
ĠM iturut
ĠG ro
Ġtuw a
p irang
Ġka y
Ġtok oh
p an
ĠT i
t im
Ġs egara
esi n
m ent
Ġp indh
Ġka dh
g e
ka h
Ġas li
omb ang
Ġm ang
ĠD em
st it
Ġt ah
ra u
uc uk
Ù ı
ĠP ak
ow iat
ĠM P
Ġsin au
Ġl im
Ġl angsung
Ġtr adi
1 6
ĠP ut
Ġbeb arengan
ĠSul awesi
ĠB o
ed i
K ab
l es
ĠS y
Ġw atu
im ia
eng i
ê§ Ģ
ur g
uc i
ĠSp anyol
ĠK ep
Ġ ang
Ġw an
ul ur
Ġt ran
Ġas em
Ġij o
b er
y um
an s
ak ul
or e
Ġpasi sir
Ã© g
ĠI r
Ġf ilm
Ġkar ir
Ġ Ã©ntuk
Ġb ag
ap ura
Ġsa punika
or k
Ġal as
i et
uw a
asi n
Ġ a
Ġtel u
Ä ģ
ah ar
Ġpanjeneng anipun
Ġ on
inÃ© tron
Ġs anget
Ã¨n si
aw as
em an
em i
aj i
ar b
Ġp ep
ew a
og an
Ġal it
. "
Ġk embang
Ġ ahli
ĠT aun
Ġk irang
op i
Ġing gil
p er
u sia
end i
eme ente
edh ak
ĠK ot
ug as
Ġg ula
f er
oka ke
Ã ¸
Ã© b
t y
ac e
Ġngen ani
r am
ĠB ab
Ġs umber
ĠR aya
Ġg et
Ġir eng
ung ah
ro s
ut rad
Ġsw ara
Ġk ek
ĠT ur
ic e
Ġb angsa
Ġs ir
ĠB oy
ĠA ustr
Ã¨br uari
Ġal am
b o
Ġd hi
ĠK arang
Ġy ang
Â °
ar ik
ĠB anjur
Ġ ist
Ġsan Ã¨s
el u
ar at
up a
b an
Ġw il
ĠT em
am in
tr uk
ĠK u
Ġka j
ok lat
ĠAm erika
m en
Ġm angk
ĠD r
Ġkap Ã©rang
ent h
amp uran
g emeente
ĠF r
Ġsa Ã©
ur unan
it us
or eng
op ot
19 8
Ġp et
is h
id ikan
Ġsad aya
Ġ Ã¨l
as anÃ©
us us
Ġ201 5
k ira
ĠF Ã¨bruari
Ġm acem
ob il
Ġs ik
as ta
r al
ar u
us a
1 3
en si
ĠpamarÃ©nt ah
Ġ :
Ġpeny anyi
x y
ĠP ul
ĠK an
- -
A s
el i
Ġ ê¦
Ġs inÃ©tron
er us
I I
Ã© h
ad ha
uh ammad
Ġk ecamatan
Ġkodh ak
A m
K utha
ĠP l
r eja
Ã©p ublik
Ġdipund amel
ak t
ĠP rop
Ġas ma
Ġkon t
ĠA ir
Ġd ol
Ġlel ara
Ġn em
Ġar ep
Ġ $
ĠK as
r et
Ġper usahaan
Ġl emb
ad Ã¨kakÃ©
Ġl ew
aw on
Ġm ur
Ġendh og
idh ikan
Ġd alan
ĠR ing
Ġp l
en s
asi tas
ĠBl ora
ĠW ong
h u
do k
K arang
eg ana
Ġn ov
ĠI b
Ġg ag
Ġm on
om at
Ġ2 1
Ġaw al
ĠAn d
Ġs astra
eneng i
engg ara
aj ah
or n
Ġl agi
ĠL aut
Ġp osisi
ay sia
ĠngÃ¨l mu
ant ar
Ġsup ados
Ġ2 2
truk tur
Ġd in
Ġb areng
ant o
e or
at er
Ġmig unakakÃ©
Ġr asi
Ġsal ebet
uk i
ĠL ay
Ġkh as
m acem
t ing
Ġl aut
Ġm Ã¨nÃ¨hi
ĠW ar
Ġdit ulis
Ġper s
Ġsap i
Ġap a
n s
ĠKlat h
and ar
ok o
Ġ 0
Ġkap asitas
r Ã©nÃ©
Ġbobot Ã©
um as
ĠR ad
ĠP eng
ul Ã¨r
Ġtradhi sional
Ġg Ã©n
Ġin ternasional
ĠA p
Ġ il
at ih
ĠB ul
ĠPi ala
k y
al aken
ok si
Ġwan ita
Ġs eka
ĠS i
at or
Ġs Ã©da
ĠS ch
Ġs Ã©l
ab i
Ġdipun l
Ġkat on
aj ar
ay at
en ang
ur us
Ġb and
iy ar
ĠW il
ob a
o ol
an uhakÃ©
al ali
ul ung
ĠAg ung
c om
Ġj ero
ekal ongan
ĠS ri
ĠL iga
eka k
ĠC ol
Ġpro gram
Ġsan ajan
Ġd urung
.. .
ĠS up
Å į
ĠS as
ĠA t
ĠM el
ĠT aman
Ġsatunggal ipun
Ġn Ã©l
m od
Ġ asil
n ya
ong k
ek sa
hi pun
Ġget ih
Ġk an
Ġb arang
i on
m inis
ĠK on
ĠPat hi
ĠSur akarta
ak il
ĠK h
Ġkaw anuhakÃ©
Ġdic opot
u as
Ġbi asane
A h
l er
Ġb awang
ĠS aj
ĠBand ung
ri g
Ġlew at
ĠP ap
g inakaken
en er
anj ung
c o
Â ²
ĠM usi
st and
ĠD Ã©sa
ĠG ar
Ġan anÃ©
endh al
Ġpungka s
is ah
ad yan
ĠW iwit
Ġy asan
Ġ201 3
Ġpro sÃ¨s
minis tr
Ġm angan
ka tan
Ġbab i
Ġman uk
A N
e al
ak on
h y
am anÃ©
Ġc edhak
Ġkant i
ĠProp insi
Ġml ebet
Ã© dh
Ġng er
ĠKlath Ã¨n
Ġpanjeneng anÃ©
angk ep
Ġtuw uh
adÃ© an
ĠS Ã¨ri
Ġsas ampunipun
Ġdi anggo
Dh Ã¨wÃ¨kÃ©
n am
si k
Ġka anan
Ã©n i
Ġpabr ikan
al em
Ġj um
andh ang
Ġkac ang
ĠP ekalongan
ĠL a
os t
indh u
6 0
t one
Ġp anc
Ġf il
esi r
Ġmen it
ĠMal aysia
Ġput ri
Ġk il
Ġm ati
ang at
Ġn egara
eb r
asi f
ĠG SM
v isi
ar e
Ġc ampuran
uh ur
U n
Ġbiy asa
Ġl eng
Ã¨ mp
ĠK arajan
Ġ2 3
Ġdip angan
s ah
Ġr Ã©s
Ġin d
Ġmet u
ĠSM S
Ġmil it
xy op
Ã ¡
eng ing
Ġsosi al
intang i
d en
on ik
Ù ħ
ĠK em
ĠP a
emb Ã©
ĠE l
ĠJoh n
ĠL am
r asi
Ġg ame
ĠC il
Ġdh edhasar
Ġjudhul Ã©
ĠM uhammad
ĠsÃ©l ulÃ¨r
ĠBat ang
ap i
Ġak tor
Ġk ena
Ġg aring
ĠF ilem
og Ã¨d
Ġpr as
Ġngandh ut
Ġk ec
angka lan
ĠPer ancis
Ġnjal ari
S al
amb i
M as
Ġ ur
ati onal
Ġak eh
tiv al
ĠBany umas
Ġs Ã¨l
Ġb umi
Ġw aÃ©
ok an
ek tur
i o
ĠI st
Ġg ampang
amel an
l ag
u ang
ant Ã¨ni
19 7
ĠAw ard
Ù Ĭ
Ġ201 6
ĠLay arÃ©
Ġkay ata
ĠnÃ©l pon
Ġkar an
ĠBat rÃ©nÃ©
stand by
am es
ĠTem anggung
Ġb intang
Ġm eng
ĠB el
Ġpap at
d er
Ġb l
ĠPanjeneng anipun
ĠRing tone
ab aya
Ġdi an
Ġs ej
il ip
Ġ1 00
in ta
aw is
ek an
Ġsur ya
Ġt h
ĠP aris
Ġput r
ĠB i
ê¦ ¶
otor ola
ĠD i
ĠM ed
Ġ200 3
ir ing
Ġ200 0
Ġnj aba
ur it
n an
aw anÃ©
es ar
Ġm aj
as e
ĠrÃ©s olusi
Ġp ak
ĠK et
ĠN okia
en ep
up uh
ĠAm arga
Ġwew atesan
Ġdiw iwiti
ĠUt ara
unung an
Ġm ingg
Ġs usu
ĠM en
8 0
ĠR Ã©publik
Ã¨r Ã¨k
ĠPur w
ĠB ay
ac ap
Ġdip ung
Ġmas ak
Ġp asar
y un
Ġp usat
Ġp ingg
al on
Ġt ingkat
ĠGr esik
Ġduw e
ag iri
asi un
at aran
Ġper an
Ġist ilah
ĠBar ito
ĠT el
Ġf ungsi
ĠMin angka
Ġk ira
Ġj ej
C h
c m
ĠK ur
es ang
p ar
Ġsal ajengipun
Ġny ambut
oh an
Ġdib abar
do ng
m as
Ġ201 4
akar ya
har ja
ĠK anthi
b it
uh ake
Ġf isi
ĠU m
ay ar
Ġkas ebat
S t
ing gi
M S
et i
Ġdip ir
P ro
y ak
ĠT ab
ĠDem ak
M ar
ĠA S
ĠPr abu
v e
Ġk uning
Ġb is
Ġc andhi
ungg uhan
ow ah
angs al
at us
Ġm aka
Ġm esin
ist ik
ĠK endhal
Ġg ambar
angan yar
ah ya
Ġdipun k
ĠS ar
n egara
ik el
is ar
uk up
andh ingan
kal urahan
Ġpindh ah
Ġk anca
Ġtil ar
Ġg aya
ĠT enggara
aling ga
ĠAng g
Ġpik sel
Ġr ata
ari an
osi pun
enc ana
al is
Ã©ng Ã©
f a
k op
Ġngg awe
ul ik
ĠAustr alia
Ġ ot
ent ar
Ġk imia
ag n
emp ah
Ġs eg
ĠT a
ir u
ol i
Ġ uw
Ã¨ st
Ġter us
Ġmas jid
Ã ¼
ad ya
ĠB en
Ġtum uju
Ġngal ami
Ġdipir antÃ¨ni
ĠK er
Ġ2 7
ĠRom a
ĠLam ongan
l aga
Ġn ambah
it ur
Ġ2 6
amp ahi
F ilm
Ġl okal
ĠP h
ĠM esir
Ġg um
K acamatan
ang unan
Ġg en
Ġsaw etara
ungg ung
Ġtet uwuhan
Kab upaten
Ġm obil
ĠL atin
ĠDew i
ĠS l
ant ara
d ul
Ġka mp
Ġng arep
In d
' s
akul tas
al ik
Ġsab anjurÃ©
Ġen om
Ġ ),
id e
s h
ith ik
d in
f ilem
ok ter
n es
Ġ el
ĠN agara
ud ayan
al u
ê¦ ¸
ind ak
ika h
ent ang
Ġant rop
reng Ã©ngÃ©
Ġm awi
Ġumum e
n ologi
ĠS ang
Ġb uk
Ã©ng gal
Ġantaw is
Ġp ucuk
w in
Ġmal ah
y e
Ġs eb
Ġ2 8
und er
ĠKr is
ĠSan ajan
K at
Ġsip at
Ġnamp a
Ġt eka
Ġsep isanan
ĠI l
Ġkal ungguhan
a il
es tival
Ã¨k si
Ġorgan isasi
ĠS ap
ic a
Ġkar akter
Ġp adh
ang u
Ġg aris
id ae
om an
urip an
es a
Ġtradi sional
Ġm Ah
eb es
Ġdipun r
ê¦ ¤
Ġngl awan
u z
ĠJ ep
Ġ5 0
Ġses ukan
Ø ±
Ġm andh
Ġt angan
esi es
Ġngg inakaken
ĠSum enep
l et
Ġnj abat
Ġngr emb
Ġmilit Ã¨r
Ġses arengan
es ter
le y
ĠGr Ã©ja
Ġpro t
b on
r uh
ung u
Ġngasil akÃ©
ar ak
ĠK ed
Ġdit ambah
]] ,
Ġun sur
ĠSul tan
Ġm ah
K em
Ġpro p
Ġkel as
y anÃ©
Ġn ind
Ġg uru
Ġkal a
Ġw angun
Ġm akarya
ĠS en
Ã©n d
ĠPer t
Ġkr itik
m at
is s
oc k
Ġsap isan
M iturut
Ġs um
Ġm ent
ĠB oj
uj uk
ĠWan agiri
ega y
Ã¨rÃ¨ng ipun
ab ang
ingk ungan
b a
ka ken
al it
Ġir ah
e hi
Ġ Ã©nggal
Ġdi ter
Ã¨r si
e e
Ġ Ã¨n
ĠÃ©k onomi
ĠD en
ĠC l
Ġdipuns ebat
ĠSur abaya
Ġs imb
amb ahan
ump ang
ka ra
Ġr ada
Ġsap er
Ġp itik
us ul
Ġc oklat
ij aya
Ġsep ur
Ġup acara
1 1
o od
Ġngg ambar
Ġwil ayah
eng go
ah Ã©
Ġw ayang
ir us
á ¹
Ġk una
ĠL an
as ang
ul ya
Ġkad adÃ©an
Ġ2 9
ĠR embang
Ġ200 1
Ġ199 9
ak r
ĠM antri
Ġs ay
ĠJ ombang
ĠH an
W onten
k in
ĠL um
ĠL ampung
and i
4 0
ĠK e
Ġal us
2 5
Ġk o
ĠP ort
eka ke
ĠK es
Ġ18 9
ĠTur ki
Ġm it
ĠP et
Ġy us
Ġm ut
Ġsaj ian
Ġh ak
Ġm el
ul uh
Ġad ministr
Ġs aya
ĠM at
Ġs Ã¨ri
Ġt ugas
ĠP ara
us ak
A b
ĠS in
Ġr adi
ali f
F A
ĠS et
ĠB e
Ġkr aj
ĠPur b
N okia
en an
Ġdip ig
Ġmb iy
ĠS un
ĠK ol
Ġng el
g ar
Ġs eri
Ġdir ilis
Ġob at
o ten
Ġb ali
am tu
us ti
Ġasal ipun
ĠBr ebes
ent er
ne y
h arga
s c
it e
Ġ200 2
l ing
ĠS c
ĠR usia
Ġdipun m
Ġ owah
ro d
es an
Ġ ;
Ġd Ã©wa
ak et
ek el
ĠKar anganyar
ĠSek olah
Ġak tif
ĠKap uloan
P er
Ġm engk
Ġg ay
R I
ab ur
um a
Ø§ ÙĦ
Ġg esang
Ġkom un
Ġsik il
P ang
un ipun
Ġ19 0
s er
Ġs k
Ġj embar
ĠN o
ot h
Ġkag olong
A na
Ġd udu
Ġg abung
Ġg egay
Ġdol anan
ab an
ĠR ob
ri a
Ġs uwÃ©
Ġt ur
Ġt aman
Ã¨h Ã©
ĠP el
ĠM o
a os
l it
ung a
us e
Ġj aw
Ġ4 0
Ġ is
ar k
ag ung
ĠJep ara
ka s
ari o
ĠCil acap
M an
n er
Ù Ī
Ġin dh
A k
I on
Ġj er
v er
ĠC o
ĠH am
p h
Ġb entuk
ka ya
Ġp anj
Ġker ja
Ġdij upuk
b i
ĠE ric
Ġmangk ono
Ġleng a
Ġs rengÃ©ngÃ©
ĠW is
b ogan
Ġs u
ĠY ork
2 7
Ġpr ab
Ġn embÃ©
Ã¨n dh
ar as
ĠKab upaten
Ġpunj ul
at ang
ados an
aring in
Ġngl akoni
ĠWan as
Ġked ah
ĠB angkalan
ĠM er
Ġkraj anÃ©
r id
Ġk opi
Ã¨n an
Ġpr Ã©sidhÃ¨n
Ġm ilih
ĠT er
harga an
e z
Ġ ilm
ang it
Ġt ip
is tan
ĠR ep
Ġnov Ã¨l
ut i
Ġat eges
Ġin f
ath et
Ġber as
Ġl ulus
Ġng embang
uh u
Ġdipun c
4 8
ĠO l
Ġen em
em a
umb ang
N I
Ġtet andhingan
uy ung
o sa
ĠBar u
al e
Ġt uk
uw angi
Ġc er
ri an
iversi tas
Ġnud uhakÃ©
amp a
ĠAc Ã¨h
r es
ka d
ep h
ĠY ah
ĠM MS
ul tan
Ġy en
Ġto ya
Ã ī
un ya
ĠAn t
adeg akÃ©
c e
aw ak
it er
ab el
ê¦ º
ĠGro bogan
s son
tr ak
Ġ adi
ĠK el
Ġdi enggo
ap ur
Ġr ampung
Ã©r an
Ġ201 7
y ori
ic k
Ġsaper lu
r ata
ĠS D
ungg ah
Ġamb a
Ġprod uk
n ipun
s k
ag e
uw ara
ol ek
Ġpendh idhikan
P an
y n
Ù ĳ
ka ke
ap ak
ĠBanjar negara
j ana
it u
Ġng em
ĠA h
ond on
W ong
Ġ es
Ġd a
ĠP and
ĠIn ternasional
form asi
ath etan
ĠM art
uw ang
j ung
k utha
y anipun
ur at
ĠS w
v a
ar aken
uk is
Ġng et
ĠIs ra
Ġop erasi
Ġ anc
ĠKris ten
ad ah
ab uhan
eg an
war na
Saw isÃ©
p at
Ġ aka
Ġr akyat
Ġc ahya
ĠT ha
ir im
ĠPap ua
A ng
F T
G unung
as em
ĠM ic
angg ang
ĠPurb alingga
an k
ud us
ir ahan
anc e
Ġaw akÃ©
l uk
ĠT embung
Ġp and
as kah
ta i
Ġkap ilih
land ia
ont o
Ġol ahan
Ġnduw Ã¨ni
Ġt en
et ik
utrad ara
Ã© ra
Ġp isan
al aman
Ġm iyos
el la
Ġkaw entar
Ġkaw ruh
o o
r ik
Ġt andha
as h
Ġw iji
Ġr aga
Ġr atu
Ġkr im
ast awa
it ab
ro k
Ġwis ata
Ġkit ha
Ġs amp
Ġc ukup
amp i
Ġny ebar
ĠKedh iri
p en
ap akÃ©
Ġad oh
N A
S a
i um
aran e
f at
l iyanÃ©
ĠK i
ĠR am
ĠF ran
Ġkat egori
Ġjal ur
ĠKat ulik
7 0
w ak
ĠM on
ub ern
Ġak ting
end a
Ġv ersi
Ġpap anÃ©
engen Ã©
m er
ĠD ar
ay ani
ĠCh ar
ĠD in
ĠD av
tr is
J erman
T aun
Ġs truktur
ebut an
G r
K a
Ã¨ g
ĠYah udi
Ġm em
Ġt embang
um en
Ġkej u
ro l
ĠJ os
r ak
Ġl ingkungan
Ġc endh
ĠAl lah
Ġat om
Ġpr atÃ©lan
Ġkab udayan
Ġml ig
Ġtan sah
Ġkomp uter
ĠP ac
ĠP apan
Ġw ern
Ġny erat
anc ang
ĠUniversi ty
ĠRom awi
Ġlum antar
Ġtan ah
Pr atÃ©lan
rib ut
Kar ir
Ġdr ama
u ar
Ã© ri
am u
ut awa
Ġadh edhasar
stit ut
z o
Ã© an
ĠC andhi
ev isi
ĠK o
ap at
Ġgl epung
Ġ Ã©w
Ġkas us
ast ani
Ġrika t
Ġpol ip
ĠUm um
e on
ap ake
Ġpopul asi
Ġd aya
ak okakÃ©
Ġn ikah
im ewa
ex t
ĠH indhu
s ar
ungg an
ados aken
ĠE d
Ġ199 0
Ġpas angan
ĠBl itar
Ġsang isor
ĠKu ala
ĠK udus
ay ahi
Ġangg onÃ©
s en
Ġd ing
Ġw ates
Ġy asa
Ġnd adÃ¨kakÃ©
P rovinsi
as ak
ĠR atu
Ġu yah
Ġwad ya
Ġud akara
Ġr Ã©
ĠL ondon
Ġkap al
li am
ĠDa erah
ĠgÃ©n us
Ġdipig unakakÃ©
Ġk iwa
ut ur
K l
r em
Ġ urut
ka b
Ġm abur
Ġb el
do w
Ġmas alah
ar akÃ©
Ġp ac
Ġkuw at
Ġumur Ã©
asis wa
w ay
Ġp andh
Ġin chi
osi s
S umber
Ġs edh
ĠK ong
Ġb ub
eng ahan
ĠJ ember
Ġindh ustri
il and
Ġkr aton
unt ut
Ġkel ompok
ĠN gay
uc h
Ġkit ab
ĠBoy alali
Ġsalebet ing
ont or
Ġ anti
Ġt eg
Ġng an
ĠB as
ro w
ĠI m
aman e
Ġm ik
el an
ĠR e
Ġpes awat
ĠM ak
air an
Ġk ana
ĠS rag
and ur
ubern ur
c ont
v ia
ka la
Ġka ri
ĠSal ah
enc e
ĠBany uwangi
Ġm est
Ġm aringi
ant a
esi pun
q ue
Ġ e
Ã¨ m
Ġt art
aw ati
ad o
ĠH ol
ĠY Ã¨n
Ġasal e
Ã¨ndh er
ag ang
ĠU r
Ġbeb ungah
an egara
ad Ã©nÃ©
Ġdiw Ã¨nÃ¨hi
Ġmir unggan
Ġprop insi
n u
y awa
on c
ĠK ecamatan
ĠL ajeng
Ã©ng in
Ġib u
s us
ĠP aus
ep art
ub ah
r one
aw ana
il le
ta un
form at
z i
ĠK ang
ĠG u
andh ing
Ġdij enengi
ilip ina
2 1
Ġ aran
aw u
Ġndh uwur
ĠMas jid
Ġpingg ir
y ek
Ã©b as
P ran
Ġbal ung
Ġb ay
ĠG i
ot if
Ġt ig
ĠK art
il la
Ġg unggung
Ġdib intangi
2 3
s tr
at al
ath ik
s ing
erika t
f ord
ap tar
ew an
Ġsatungg iling
s ani
Ġs i
amb ung
ĠH e
Ġseka wan
D Ã©sa
ur usan
ara p
ĠJ aya
I N
l ang
el ar
Ã¨n t
ĠD e
Ġpr aj
B i
Ã ¶
ĠP artÃ©
adi on
Ġpolip onik
s o
asi a
Ġf orm
Ġkar ajan
Ġbiy Ã¨n
it al
Ġs ok
it ed
ol ongan
om a
ĠF akultas
Ġprod uksi
ĠWanas aba
h am
ing al
ul uk
Ġny ebut
ug u
und ang
Ġ us
er ing
Ġt unggal
ung i
Ġmb entuk
uka k
Ġgar w
T V
Ã© ografi
Ġf am
Ġkag iyatan
Ġs itus
Ġm udh
Ġt Ã¨k
ad u
or ejo
ĠPem alang
l d
Ġt eb
ĠC hi
urung e
Ġ199 8
ĠEric sson
ah ing
Ġw edh
ay or
K r
Ġr egi
ĠN or
om o
ĠKal urahan
Ġgr Ã©ja
ĠKap uas
l em
ĠB uda
un ia
ĠM atar
Ġj ogÃ¨d
ĠN usa
ĠG usti
Ġngg unakake
19 6
uk isan
Ġpend idikan
Ġs adh
ig ht
ĠSM A
ĠII I
ungk ur
Ġw ayah
m in
Ġ im
Ġp rib
ĠL ou
Ġnj ero
Ġad at
ĠNgay ogyakarta
C ar
ĠB ur
il ir
ĠN ob
ud uk
Ġv ari
Ġst asiun
Ġng ur
ep i
art o
ĠA z
ag o
4 5
er gi
Ġdi dh
Pran ala
Ġ int
Ġd ebut
Ġm us
Ġm asa
ĠB ant
Ġg oreng
Ġmaka ten
el it
ĠU ga
rah ipun
Ġgum antung
ĠS id
ĠA li
ĠN i
ĠO ra
omb ok
Ġhi d
en ian
Ġak ir
iwit an
Ġbap ak
iet nam
Ġ ek
Ġp ing
ĠS erikat
ut ra
es e
ribut or
P owiat
S p
ya i
Ġc h
Ġ Â
ant un
ĠD es
and uran
ub eng
k idul
uw an
os o
Ġ3 1
ĠKar ya
S D
Ġsak iwa
Ġjeneng e
t s
u angan
er eng
Ġt iga
ĠM ula
ĠT ok
Ġem ail
Ø ¨
Ġp ot
Ġp akar
Ġl ara
n agara
Ġk or
ĠS astra
ĠC ity
ĠR akyat
imp i
Ġmed al
T r
Ġs ithik
Ġl egi
ĠB a
ĠJ awi
Ġem as
Ġsad Ã¨rÃ¨ngipun
9 0
s aka
ah l
ot al
Ġkaw asan
in ing
B B
Ù ĩ
ĠS tr
iw ati
ĠH a
ĠIsra Ã¨l
A d
Ġ198 0
Ġt ambahan
ĠJ end
uw ana
oka si
Ġnam anipun
c k
Ġp ur
Ġb umbu
asi k
J eneng
K ali
ĠT FT
uw un
ĠH o
Ġwujud Ã©
tern ational
mi ah
Ġndh Ã¨rÃ¨k
u isi
Ġ usaha
ĠM ul
ĠD j
ĠR us
Ġper n
Ã Ń
ar o
Ġm ata
an o
dh i
eg ah
Ġmusi yum
ĠT ul
Ġngg abung
Ġpen erb
Ġdis aj
Ã¨w i
en Ã¨h
ip ta
Ġnj upuk
Ġpem ain
m ah
Ġp angan
Ġdipun yasa
Ġas l
Ġantrop ologi
w al
ub ung
esi s
Ġadi cara
go dh
Ġr emen
Ġjag ad
Ġs andh
onten aken
b ahan
asi sir
uru an
itan ia
ĠAng katan
mod el
Ġs il
Ġk m
ĠS at
ĠM angk
Ġdil akoni
Kat egori
Ġka um
ĠB u
Ġg and
ĠAngg egana
A S
aw uh
or ld
iy in
kap Ã©
ĠPort ug
Ġl og
ĠA ri
Ġpopul er
c i
t engenÃ©
Ġk and
Ġb eda
asi h
ĠV ietnam
P aus
al iwa
ĠS il
it is
ĠF estival
amat aliwa
on ia
Ġb ek
em ah
Ġdh uw
ĠÃ Ī
Ġsur at
Ġs ijining
or is
aka wis
Ã¨r en
Ġ- --
olog is
Å Ĥ
si n
ut uh
Ġr eg
ĠIng kang
Ġpr akara
Ġdib angun
Ġlap isan
b urg
Ġs ah
Ġw iyar
Ġd unya
om as
Ġs uhu
Ġp ati
Ġb r
ĠM e
Ġak tris
Ġh ukum
Ġ199 7
ĠAb dul
Ġmlig inipun
aw aringin
ĠD ip
ĠR o
Ġkal awar
Ġkap anggih
Ġper d
Ġyus wa
ĠMatar am
Ġl angit
Ġt ani
aw asa
ĠD adi
est amp
tim estamp
cont ributor
Ġfam ili
Ġg as
ĠD is
ew engkon
edh iya
Ġak hir
od a
engk uyung
indh o
P en
S i
ĠG eor
ahan an
k s
uk ul
aj ak
ek t
Ġper i
ert osi
ump ulan
Ġb ar
ed ia
ern ame
Ġ18 8
Ġgedh e
Ġtran s
2 2
em on
us ername
ir anti
ol d
ĠD ir
Ġ6 0
O xyop
Ġp aring
aw ah
ap uk
P ar
Ġt engen
Ġr e
Ġny ebab
B ab
m o
ar ia
Ġd ari
Ġsaw ijinÃ©
Ġv an
ĠKot awaringin
Ã¨mp er
Oxyop es
Ġm adeg
Ġdhuwur Ã©
ho a
Ġlap angan
ĠRep ublik
anj i
ĠKaj awi
ĠIst imewa
Ã© la
Ġs esi
Ġp edh
ed ung
Ġf or
ĠDh eweke
ajan egara
ĠP end
ag ani
Ġdiw asa
Ġpaw iyatan
K I
m on
Ġs erat
amb u
Ġsad ulur
olek ul
Ġngem ot
Ġd es
si yun
ĠB ajanegara
ag em
ĠH ong
ec h
Ġkas usun
Ġadh em
S an
Ġ arah
Ġp ed
atan ipun
angg it
Ġdip Ã©rang
Ġisi nÃ©
ol an
ow ahan
Ġpan alit
Ġl ima
Ġt op
os ari
iw ara
epart emen
ar y
ĠS uk
Ġdi dol
ih ak
Ġkab abar
) "
Ġ omb
ĠSaj eroning
um si
Ã¨n ipun
Ġr ep
ĠH al
ĠF C
edh ung
Ġdipunw astani
ĠTha iland
P ur
p l
ĠP T
ong hoa
Ġ194 5
3 5
K ap
Ġp rau
Ġm unggah
ĠC or
anc h
ĠSing apura
2 8
in j
ĠS r
Ġng aw
Ġbeb r
Ġ eks
Ġp ej
ik e
rop is
Ġpeng g
Ġ197 0
Ġ =
ag ar
Ã¨k tur
Ġkon o
iv er
Ġb Ã©bas
ĠIn stitut
uj ur
]] .
Ġmingg u
ar jo
Ġb ant
ika t
ĠB ad
Ã¨n ten
ek tu
Ġsen iman
Ġngremb aka
uw as
ĠD an
ĠPer s
ust aka
ĠUn i
Ġb adan
Ġw in
Ġw ol
ika ke
ind ah
imp inan
lam et
Ġngandh ap
Ġm i
Ġkul iah
Ġ199 6
Ġurip Ã©
agel aran
Ġprab awa
v i
ĠK omp
Ġr ambut
Ġ199 5
Ġamb anÃ©
Ġpert ama
Ġdim asak
Ġ ati
Ġ Ø§ÙĦ
at siyun
Ġdit epung
k et
it ra
ĠT e
angg Ã©
ont on
af tar
Ġmest hi
y i
Ġb under
Ġn on
ĠJ ames
Ġc ep
emb aga
Ġul am
Ġul ah
Ġin i
ĠSas ampunipun
, "
Ġwar ni
Ġuk ur
T embung
à ¸
al o
ep an
ĠSaw etara
Ġkomp l
ah u
Ġn il
ĠJ at
uw i
ĠF ilipina
Ġper k
ti on
ĠSa iki
Ġdian akakÃ©
J inis
Ġl a
Ġt emp
mb ok
Ġtig ang
end Ã©ra
ib at
Ġkat ingal
Ġngl ampahi
B l
B r
Ġm unc
ĠT ek
asar akÃ©
Ġg eni
aj ang
angka h
ot an
ĠU p
Ġning gal
par ent
Ġ Ã©
Ġl istrik
et isi
e um
Ġw akil
uk uh
ari b
Ġud ara
ĠK ota
el d
uj uan
Ġ6 5
Ġkak uw
parent id
2 6
P am
ĠS egara
ê¦ ł
Ġcar iyos
ĠSad urungÃ©
Ġ Ð
ĠO p
ĠPanjeneng anÃ©
b ala
Ġ Âł
Ġ Ã¨t
al Ã¨k
ĠK en
ur o
Ġng endi
Ġpad a
ĠAk Ã¨h
Ġrum iyin
Ġ id
si h
Ġt e
Ġ" (
Ġngg awa
Ġst udi
Ġsuk ses
2 9
S id
Ø ¯
ĠG l
ha el
Ġar sit
t ik
Ġt itik
ĠB ang
ĠB eb
ĠD o
ĠE m
Ġst atus
amarÃ©nt ahan
ĠS ir
Ġj aj
Ġmen awa
ĠBr itania
Ġs eng
ub an
atu an
ĠS umb
ĠP o
Ġw at
Ġpro dh
Ġadministr atif
Ġl ar
ro ng
ongk ok
n as
w Ã©tan
Ġw et
em at
ĠM otorola
ap t
og or
eka san
Ġdit ind
Ġad onan
ĠMel ayu
2 4
T A
Ġ o
Ġr upa
Ġc r
Ġdh ew
and er
erb it
Ġlem ak
ĠtÃ© yori
Ð °
Ġn erus
Ġg er
sa ya
ĠC om
ert o
ĠBoj anegara
W an
ĠB ag
Ġart is
ace ae
Ġl unga
Ġm ontor
os an
Ġpat ang
Ġmodh Ã¨ren
ĠTi onghoa
ĠWil liam
G Ã©ografi
y al
ĠS im
it asi
us akÃ©
Ġan im
ĠGunung kidul
5 5
in et
ĠK adh
ĠDew an
Ġk uc
Ġt ampil
Ġdi yasa
or y
ĠM et
lan it
d r
en j
Ġkal oro
ra f
Ġv irus
Ġd ata
er e
it ual
Ġ [
ĠT anjung
Ġ199 4
ĠBr asil
ĠS e
Ġr am
Ġkap indho
ĠBand awasa
ĠSab en
Ġnger ti
l ik
ul isan
ĠM ur
ĠI ran
es na
ay ak
Ġal ami
Ġkil om
b at
Ġp ent
ĠS unan
do m
ĠT ap
Ġpangg ang
Ġsuw Ã©nÃ©
s ter
y l
Ġ emp
at inÃ©
ĠT or
ac ar
ti c
Ġ199 3
Ġngr ampung
com ment
Ġket urunan
Ġ196 0
Ġjal aran
Ġjag ung
P l
ant ik
ĠB os
ĠA st
Ġg ur
ĠD el
Ã¨r an
ĠAr j
omb a
ĠSp esies
aka s
ĠF I
Ã©l Ã©
Ġ8 0
Ġdic ampur
b al
ĠM c
Ġr as
Ġdh istrik
ĠU k
Ġangg egana
sp ort
ĠAd ip
E S
S el
Ġp ilihan
Ġm antan
ah aran
ĠS ala
ĠW in
Ġc et
Ġsaj rone
Ġ199 2
ĠUn ited
Ġgand um
A g
ĠB on
ir e
Ġ18 7
S h
Ã¨h akÃ©
Ġsaw ise
Ġsa os
Ġnj aga
Ġkad ang
Ġkad adosan
bum i
Ġtart amtu
Ġd engan
Ġk andh
Ġ201 8
ump ul
Ġpangg on
Ġkag em
Ġnduw Ã©ni
ĠPam ekasan
L atar
ent asi
amp u
kar ya
Ġkaw iwitan
Ġjum lah
ĠSrag Ã¨n
uwas ani
T aman
Ġl uhur
Ġg al
ud ra
amp ilan
anc i
en Ã©
ĠSuka harja
Ġl ukisan
ak h
âĢ ĭ
uka kÃ©
Ġd om
Ġb ec
ĠB umi
eb l
iy at
Ġin ter
Ġlim rahipun
Ġmunc ul
Ġm a
am il
Ġb iru
it ung
ag angan
Ġpraj urit
Ġng adh
Ġpun di
tan dh
Ġtel evisi
Ġurut an
N anging
j ek
Ġ oksi
Ġg riya
aj ib
ĠN us
ĠR ah
Ġkal ah
Ġsaw enÃ¨h
Ġv id
ĠKan ada
Ġ i
an ia
Ġp artÃ©
ĠM or
ay am
ay anan
Ġin formasi
ĠMal uku
ĠTi ongkok
P ulo
T I
r u
Ø ª
ka k
Ġb aku
Ġc ekak
ĠKet ua
Ġkomun itas
it s
ol e
ow ahi
Ġdipunp aringi
ultan an
S uka
z e
Ã© in
ĠK un
ten i
ĠRad Ã¨n
ĠP usat
ĠJ embar
iw an
Ġnud uhake
it amin
Ġr adhi
eneng ah
Ġpen c
Ã©nt ah
ĠPang Ã©ran
Ġsay uran
m ur
ol l
Ġkant or
Ġak tiv
Ġkr ama
embang unan
ĠPac itan
Ġditepung i
Ġb as
Ġn et
Ġw au
ina oni
Ùİ Ùĳ
Ġr empah
Ġf itur
Ġpr akawis
ĠE r
Ġtil as
Ġsen yawa
ĠPad ang
ul angan
uw uh
ob i
Ġmb uri
ow n
Ġz at
ia u
Ġman is
Ġnd amel
Ġum at
und ur
Ġtradhi si
r ist
s uh
Ġd el
ĠS ony
ĠP on
il u
ĠM and
hi p
ot t
asif ikasi
Ġbebr ayan
e in
Ġs uci
Ġm Ã¨mper
ul ang
Ġj antung
Ġpag unungan
d ang
k l
Ġb u
ika l
ê¦ ı
W iwit
Ġk ue
ak up
ig at
Ġsad urunge
S I
k ul
Ġp os
as on
ant h
ĠM il
anj ang
ingg al
b ar
g er
Ġ et
Ġs h
Ġp eg
stit usi
3 9
w ohan
om ong
ĠLou is
at o
Ġ199 1
angun ipun
gan isasi
ĠSa int
Ġpabr ik
ĠAh mad
Ġk in
hi d
ĠG o
angka la
ĠAl ex
Ġres ep
ĠNov Ã¨mber
e ar
Ġd awanÃ©
Ġm undh
ur m
ur ah
ĠS ampang
Ġn emu
or ong
ĠT ar
ĠD unia
Ġmil i
erc aya
Ä «
Ġ ep
Ġ unt
Ġs utradara
er v
ĠK ad
Ġdi angkat
Ġs ara
Ġl eg
ĠS ub
rop a
abar u
Ġpenerb angan
o e
un ika
Ġng ad
Ġor do
ĠAm ar
ran s
Ġk enth
Ġka ka
ur uh
ro t
uw ar
Ġpad unung
ĠSch ool
Ġanc as
an n
ak tor
ah ipun
Ġn ya
ta in
upat i
Ġpr astawa
Ġk en
ur itan
Ġsal iyanÃ©
Ġ195 0
Ã³ w
A R
E R
Ġm Ã©dh
ĠR as
amb a
ud din
Ġny inaoni
ith ak
Ġprib adi
M in
ur y
us er
ĠngÃ¨l miah
c ar
s ki
Ġl ayang
Ġl awas
ah arajan
Ġpen j
ajeng aken
ĠPut ri
S ad
ar atan
si j
ut ri
ĠH ilir
Ġdit ampa
Ġlim ang
ĠDav id
is ata
Ġb athik
ĠS umber
ĠT ang
ĠL ib
ĠR ot
odh e
ath ara
Ġpunj er
ĠKot abaru
Ġnind akaken
k onomi
Ġm aca
ĠI V
Ġbab ak
Ġ andh
ĠT ah
ĠW orld
b ocah
w ara
Ġm ateng
et eg
ĠH ind
Ġf inal
Ġdip asang
oc h
Ġkodh e
Ġs r
ĠP BB
ĠD Ã¨wi
ĠH en
Ġy ak
ĠKep ala
Ġdhuw it
j ar
l ak
à ¥
ĠK aw
Ġn askah
Ġc em
Ġv okal
Ġpam ir
Ġket emu
6 5
ir is
ac an
ip t
Ġdip asarakÃ©
re en
Ġsw asta
Ġkem angga
ĠMus lim
3 7
Ġp ihak
ĠK ay
ĠB atu
Ġkac a
Ġgol Ã¨k
Ġndh ik
Ġt omat
Ġn arik
ab or
uj i
Ġ4 5
Ã©si onal
Ġgegay utan
ab ungan
ĠR os
ĠAr g
ĠPang eran
o x
Ġp art
Ġing aran
ĠS ed
ĠB uk
ra v
Ġsa ind
Ġmar agani
ĠNob el
M otorola
y Ã¨k
ĠS u
ok ok
ê¦ ģ
iyamb akÃ©
Ġkol oni
Ġseg er
Ġb ala
ĠB h
ih an
Ġc el
Ġny anyi
19 5
Ġab ot
Ġ7 0
Ġtum indak
. ,
4 9
Ġm olekul
Ġka in
Ġn uk
ĠB is
il ang
ĠG ubernur
ud uh
uru f
k rip
Ġm ag
Ġn amb
ĠB ogor
es m
ĠN am
ĠIn ternational
ĠPr am
unj uk
Sal iyanÃ©
b ah
i er
ĠS ov
ĠâĢ ĺ
wis s
Ġgar wa
rod uksi
Ġjaw ab
k r
Ġn ed
ĠP anc
Ġj arak
ĠG er
and ang
Ġal iran
Ġbap akÃ©
k us
Ġp agelaran
ĠS us
ĠT om
ĠC i
Ġc oc
Ġ3 5
ori us
Ġud an
Ġfisi ka
r en
Ġs e
Ġs us
Ġd unung
uk ung
ĠF er
ĠtÃ© mbok
Ã©h atan
orn ia
Ġgay utan
ĠDin asti
Ġbec ik
A M
P R
Ġk anc
am antri
Ġt Ã¨h
Ġng anggep
Ġr eka
Ġny at
ĠSt udi
Ġd alem
ĠP ic
Ġng ayahi
ib ar
Ġkon d
ĠAw it
atih an
Ġmah asiswa
ĠJend eral
Ġkilom Ã¨ter
Ġt laga
Ġwonten ipun
p inten
w it
Ġt angg
ĠP ag
Ġng and
Ġng anc
Ġc iri
ĠAr t
Kem angga
) ;
Ã §
at era
Ġng alah
ĠM ag
us ana
ĠT NI
ĠL aladan
Ġkon trak
Ġbo j
Ġmusi m
Ġprof Ã©sional
Ġpungkas anÃ©
ĠK ej
ĠG al
ay ung
ĠV al
Ġbag ean
Ġil ang
J at
d am
e au
r ang
Å «
ĠK elas
em y
ro f
op h
ob al
mp en
Ġjum eneng
ut e
ane ae
utrad arani
p e
Ġm eh
er angan
on is
ak Ã¨hÃ©
ĠP in
or s
um um
om i
ĠO t
ĠO xyop
ĠAr aneae
Ġukur anÃ©
4 6
p el
Ġl ayar
ik si
Ġt ropis
edh Ã©
Ġdig anti
Ġkomp etisi
Dh aptar
alif ornia
Ġt otal
ac ak
Ġkas ar
Ġngl iwati
Ġkl asik
Ġangg it
ĠÃ¨l mu
ĠOxyop idae
d u
uk ur
sa fat
isi k
Ġper c
est asi
Ġmbiy antu
Ġdipunm ang
ĠBant ul
c he
Ġs emp
ĠK ut
ad ilan
Ġf r
Ġas tr
aman an
4 7
u el
Ġs is
un tu
ap ah
oc i
ĠUt ama
S ungai
g anÃ©
as asti
Ġng end
ĠH amataliwa
end er
ĠV I
c al
ing ga
Ġt ap
ĠK embang
Ġng ingg
ĠB intang
Ġ( ).
ĠAl am
ĠSak ing
ber g
Ġwadya bala
Ġsesi rah
b arang
f in
n t
w i
Ġt ambah
ĠK una
ab uh
Ġj awa
Ġc alon
ec a
Ġnerus akÃ©
Ġp is
in us
Ġb untut
ĠT inggi
ic al
Ġang in
B al
m y
Ġp ec
Ġka tr
Ġn eg
ent ara
adh anÃ©
ig h
Ġbis nis
P ad
w art
Ġk entang
ak ing
ĠS uku
ĠB anten
ĠGr Ã©g
Ġ9 0
r us
ĠS wiss
Ġdi adegakÃ©
Ġw engi
ĠB udaya
ĠM urung
Ġdh iri
ay ana
Ġkal oka
Ġ ).
Ġm ant
ĠP rau
Ġg angsal
ĠC alifornia
ĠH er
Ġkep ala
ungk us
Ġkh usus
Ã¨p t
ĠKaj aba
Ġperi ode
Ġsaind enging
ar eja
ĠL eb
ta f
Ġny oba
imp en
ĠLum rahÃ©
P eng
ĠG un
ani an
Ġpr akt
ingk ing
ug an
ĠKa isar
Ġpras aja
ahl awan
K ari
y s
Ġ Î
Ġp upuh
ĠA f
ĠC on
Ġmod ern
Ġditem okake
Ġprot Ã©in
Ġtip is
es angan
ĠCh ris
angs ul
ĠRob ert
Ġs tr
ĠP es
dh en
ĠG en
ĠLe e
undh a
Ġsalebet ipun
Ġsu gih
K eb
Ġd angu
Ġk os
Ġm edh
ĠS ud
aj at
Ġmas kapÃ©
erb a
amarÃ©nt ah
Ġ entuk
Ġk eka
ĠB esar
angg u
ĠAng el
u yan
Ġ Ã©nd
ĠM ir
Ġj uwara
Ġnj awi
ĠKal Ã¨ndher
Ġml aku
Ġdipunt epang
Mas jid
Ġjer uk
S ab
s et
ĠS k
ĠJ ati
ud id
Ġku il
ĠGrÃ©g orius
3 6
t engah
um ah
ĠJ uru
ent ina
Ġpan ulis
Ġkem awon
ĠFI FA
N ing
ol ak
Ġj emb
ĠW at
Ġdip ilih
Ġjam ur
sport asi
e ur
Ġ â
Ġk ebon
Ġt anduran
ĠD ina
lag hu
ar ta
Ġd er
Ġp ura
Ġk ub
Ġb akar
ĠL intang
Ġc abang
iw isata
ungg uh
Ġ198 9
gay uh
k up
Ġs ega
al aya
ah akÃ©
ara ja
ĠE x
Ġwedh us
ĠÂ ±
" ;
7 5
E D
M usi
Ġ asi
Ġm Ã¨h
Ã¨ b
ĠS eni
ĠT anggal
una an
Ġmod el
ubeng Ã©
r as
Ġp inten
ĠU d
Ġkul awar
Ġpat ung
Ġwern anÃ©
p o
Ġ ef
Ġka h
Ġut amane
iw i
isi s
tr awan
ig n
ĠKor ea
Ġdid adÃ¨kakÃ©
p u
Ġp ari
Ġset engah
Ġib unÃ©
r ab
Ġng ib
Ġg amelan
ĠN om
and ing
ok us
Ġob ahan
rip ta
Ġradhi o
3 8
p ira
Ġn er
Ġny egah
any e
Ġkaw igat
Ġpend uduk
L e
p i
Ġs l
Ġb awana
Ġw esi
est oran
Ġtok o
ĠAward s
Ġmandh eg
ĠAmar gi
Ġpamir sa
Ġ olah
as awar
ur un
Ġb Ã¨nten
Ġc o
Ġkap ungkur
Ġ18 6
Ġdil eb
Ġaj ang
S uk
w ard
ya kakÃ©
ĠJ um
ĠD Ã©wa
ek tor
eg oro
Ġkl apa
Ġnduw eni
r empah
v olusi
Ġd alam
Ġp lanit
ĠS erb
ĠM od
id i
Ã©r ah
ec t
ĠPur a
Ġlemb aga
is m
ĠS eri
dh edhasar
Ġdipun anggep
Ġmung suh
ĠBul eleng
asawar sa
S aka
c el
Ġl emp
Ġng up
ĠN un
iv e
Ġmas sa
S as
er ic
up angat
ĠH as
ĠU N
eka kÃ©
ĠSum atera
Ġkan ker
ĠMic hael
ĠChar les
Ġj aran
ĠC inta
op erasi
apan unggal
ont onÃ©
Ġtradi si
v ent
and ra
andh Ã¨ng
ĠQ u
Ġlog am
Ġd u
Ġm anca
ĠP Ã©rangan
Ġr ah
Ġny erang
Ġny ekel
Ġny akup
Ġdig awa
ug h
ala i
Ġwar sa
ev olusi
Ġpras asti
W al
g Ã¨n
an ak
at ing
ad ing
Ġng ew
Ġdh a
Ġu kara
ok rat
ĠF lor
ub uwana
ĠTap in
P ol
T im
k ulon
Ġ Å
en n
Ġt angga
el uk
ĠT amb
awa i
ew i
asil itas
oy o
Ġaj i
o is
Ã© man
Ġm emb
Ġg Ã©
uk us
ĠSM P
ĠBanjar m
ĠmÃ©dh ia
B A
l eg
Ġ ungg
al og
Ġb ut
Ġun iversitas
utup i
ĠÃ¨l Ã¨k
Ġdipunmang ertosi
Ġ oy
ĠS eb
es h
Ġc aket
id ang
Ġangg ur
Ġt ulis
ĠS ut
ĠM anch
Ġc ur
endh ang
udh a
yar akat
Ġrum ah
ĠPul au
ĠSun da
P amarÃ©ntahan
Ġ +
Ġb ot
Ġn it
ul asi
Ġng atur
ro gen
uk e
ĠR a
ê¦ ±
Kar ya
Ġs ul
ak it
Ġng gih
ĠG odhong
Ġgedh ang
Ġsar jana
Ġ12 8
ĠBay alali
Ã¨pt Ã¨mber
B er
J awa
S em
at t
ah asa
ab it
ant ai
ir eja
hi a
Ġ3 00
ĠâĢ ¢
rib usi
Ġnamp i
Ġvari asi
j ah
y c
Ð ¸
ar na
Ġm impin
ĠK ul
Ġr em
ĠW adya
Ġdig oreng
Ġan akÃ©
ĠCh ina
las h
Ġ24 0
Ġten aga
udid aya
ĠB ro
eb o
amp ah
Ġkag unan
Ġsin ebut
at ik
er l
Ġt ata
ĠR es
ebr uari
r Ã©
u x
Ã Ī
Ġl awang
Ġn o
ĠW akil
Ġ198 8
urn am
Ġd o
ĠS Ã¨ptÃ¨mber
ĠP asar
it t
ab il
ov e
ĠMar ia
Ġser angan
Ġteg esipun
3 3
ar m
ĠS m
ut o
ĠB or
ĠB uku
ĠC an
Ġkuc ing
I s
r esi
Ã ¢
Ġp Ã©ngin
as hi
Ġng adeg
ĠN a
ĠR ich
os aken
Ġkal angan
ĠF or
ĠPro f
Ġduw Ã¨ni
Ġsimb ol
Ġtuk ang
C andhi
r aja
Ġl ambang
Ġt inggi
ac ing
ĠN y
ĠC ap
ĠR oy
Ġin tern
ert Ã¨ni
ungka s
ĠÃ©nd ah
P as
ad Ã¨n
Ġdh okter
ĠU l
Ġmen ara
Ġmb oten
ĠV II
Ġ198 7
Ġangg Ã¨nipun
ĠDis ney
Ġwet eng
G A
ĠM oh
ĠW ond
Ġas u
Ġcep et
Ġcet ha
l ad
Ã© ta
aw angan
it ha
ub ungan
Ġditer bit
ul usan
ĠB ank
emb ah
Ġsal uran
endh idhikan
Ġ18 5
ori um
Ġcoc og
H ar
w ik
Ġ ula
Ġ ayat
en is
Ġt ik
Ġb ener
Ġw ingking
Ġsal at
ĠAn ak
Ġkur si
ĠMan awi
Ġmodh Ã¨l
Ġkarir Ã©
arb Ã¨ni
K ul
Ġp indah
is ode
ad adi
et ak
ĠR ama
Ġut ami
ent rian
ob ong
Ġdip anggang
au g
ĠO b
emen s
Ġbay i
o go
ik o
is aran
Ġdipun dh
Ġsa ubengÃ©
int ah
Ġsan adyan
Ġmudh un
O r
Ġs amb
Ġp a
Ġl atar
el e
ĠM ent
Ġkaw it
Saj eroning
Ġtah un
Ġmur id
Ġm am
Ġm ad
ur e
or Ã©
el is
Ġdh aharan
Ġny uwun
uj ukan
Ġal a
Ġdiw angun
Ġsas trawan
Ġp ira
ul au
uk ti
eb aran
ok oh
aga i
iv ers
atÃ© l
ons umsi
ĠPar k
ĠIr landia
Ġned ahaken
I S
l us
m ul
o i
w ah
ï ´
asa an
Ġgel em
Ġdipunw iwiti
Ġpungkas anipun
Ġpadh ang
K ep
u f
Ġr estoran
ard i
ump es
Ġ198 3
Ġunt uk
S ing
b ert
r ejo
al ur
al es
Ġm agn
ĠP anganan
Ġpr am
ĠPa ul
ĠTok yo
P I
u ff
z y
Ġ angsal
Ġt emb
ĠS hi
ĠP andh
ub ur
ib a
st em
la v
Ġcacah ing
Ġdipunt ing
ual itas
Ġsir ah
sij inÃ©
5 00
9 6
K edhung
T h
s em
Ġp uisi
si p
as ana
il e
ol ahan
Ġj uara
Ġc athetan
ĠE ropa
Ġmen ehi
ĠSal ajengipun
Ġ198 4
Ġnjal uk
ĠMus eum
Ø ³
Ġk Ã©m
Ġng ed
Ġj angkep
Ġkar bon
Ġkam ard
mar k
Ġnggambar akÃ©
Ġsangisor Ã©
P apan
Ġd Ã¨rÃ¨ng
ĠP eg
or Ã¨ng
Ġng asta
ĠW h
ent ah
ama in
orm al
unc ur
Ġpit ung
c ak
s y
Ġm ric
Ġik lim
ri ch
wÃ¨ dhen
ip er
oka ken
Ġpangg Ã¨nan
ĠBer lin
ĠSer uyan
Ġditem okakÃ©
ĠRad en
ĠSl Ã©man
Ġnget okakÃ©
ĠPortug is
Ġngib adah
k el
ang a
um e
Ġtek anan
ĠMad rid
Ġkadh apuk
Ã©lÃ© visi
g ia
Ġl akon
ĠB adan
ara an
Ġper m
Ġin ti
ord in
ef ektur
Ġkam ar
ĠTh omas
ret aris
Ġre aksi
3 2
s al
Ġ air
Ġl okasi
Ã¨ f
Ġsak it
ub engi
ê¦ ©
unj ung
ĠEn ter
e ad
Ø ¹
Ġ endi
ing ton
Ġt ujuan
Ġdi ad
Ġng undh
ong g
ĠW it
ud e
ungg u
ersi al
Ġtet an
Ġ197 3
Ġsosi s
Ġfisi k
Ġjemb arÃ©
ĠK yai
ika kÃ©
ĠB athara
Ġc uw
Ġpeng hargaan
ogra f
Ġhi b
Ġaj aran
ron ing
Ġkaj aba
Ġanim asi
M en
al ong
er y
Ġw uri
Ġmen dh
Ġdik embang
Ġtuw anÃ©
Ġ198 2
ustri a
K et
O ra
Ġp eth
Ġp riya
on j
on dh
eng ka
ir asi
ĠJ am
ĠJ inis
Ġdipun j
tan dha
erb ang
ĠKr aton
Ġkad amel
Ġmaj u
Ġkamp ung
ĠSap Ã©rangan
er ia
on Ã¨n
ung s
ĠP amarÃ©ntah
umb uh
Ġker tas
Ġngasil aken
ĠÙ ħ
okter an
ĠPend idikan
C O
Ġl Ã¨r
ut uhakÃ©
or f
Ġng irim
ĠB L
Ġpun apa
ed er
ani el
uj arah
imb angan
Ġ198 6
Ġpal akr
E n
k Ã¨
Ġ ok
Ġw us
ĠM iss
uk t
Ġj urusan
ij ing
Ġkap isanan
ic o
Ġan anging
Ġpangg ung
ingg u
Ġjej uluk
S ony
ar uh
un akaken
Ġt indak
ĠS undha
ĠB angsa
asi r
Ġr er
ĠW ir
Ġdh ok
ic ara
Ġdis ebab
ampi ons
ĠFran k
ĠBanjarm asin
ĠManch ester
3 4
T anjung
p asar
s tan
Ð ¾
Ġ Ã¨ks
Ġp amar
ĠM ari
Ã©n ario
tr uksi
Ġ3 20
ebu ah
Ġv itamin
Ã¨w u
ĠKam aharajan
asif ik
apt asi
ĠB et
og en
Ãª n
Ġpin ter
b Ã©da
i ro
Ġ Ã¨k
Ġs y
en angan
Ġw anci
Ġsa us
Ġpen ulis
ĠPro gram
ade yan
ayor itas
Ġdipunting ali
3 1
Ġ ov
ĠB ahan
ĠD asar
Ġst andar
Ġ198 5
ort h
Ġfil safat
Ġhib uran
p ool
s ek
Ġ arang
ĠM ei
Ã¨k tar
of f
aks anan
Ġgeg uritan
ĠSup er
ĠArj una
B C
P ag
T amb
w itan
un y
Ġw angunan
Ġr is
Ġr el
ĠMusi yum
ê¦º ê¦
Ġngaw ontenaken
ĠSerb ia
d em
p ang
ĠM ong
ĠG ol
ĠH ad
ub a
Ġpro dhuksi
ĠCh ampions
ĠBal angan
ĠNun ukan
Ġm aring
ak sa
Ġt ar
ul ar
ter i
od i
Ġkat urunan
ĠTab anan
ĠTa iwan
Ġbu ah
b u
Ġka uripan
Ġng uwasani
ĠM ont
ol ik
Ġat os
Ġun ik
ĠKab Ã¨h
K anggo
l ir
ak ipun
Ġt amu
ur t
ĠS ari
ĠS amp
Ġik lan
ĠN as
Ġmin yak
edh ik
Ġny impen
ĠV ic
Ġteges e
Ġth ukul
D r
K aj
P em
ĠJ u
Ġal k
ê¦ Ń
Ġgedh ong
Ġkak ung
ĠDes ember
S T
T egal
f ilm
Ġ imp
Ġk up
am s
ĠK ant
uk un
Ġc m
Ġdip ercaya
ĠE v
ĠAl bum
ĠAb u
Un iversitas
kab upatÃ¨n
ar ma
Ġt urnam
ĠK ath
ir ah
Ã¨n tr
Ġkat elu
ĠIm am
Ġngingg il
F ilem
y r
ka c
Ġd agang
ĠS wÃ¨dhen
ĠT ri
Ã¨n Ã©
ĠD ur
ĠH ukum
amp uan
oh ol
ĠIl mu
Ġradi o
K am
m ara
Ġng as
ĠG el
ĠY o
ĠV an
aks ana
fa at
P A
l intang
o a
r ahan
Ġm es
er ja
ĠK aya
Ġdi tr
ĠB ol
ĠT um
ast ik
Ġ197 6
Ġ197 9
Ġdil akokakÃ©
ĠSab anjurÃ©
visi on
Ġjaj anan
Ġvid eo
y on
Ġ à¤
Ġp ra
at uran
ĠB anyu
ĠB umbu
ok i
amp ahan
Ġin v
Ġsep uh
iver pool
w iki
ing s
on egoro
Ġt Ã©lÃ©visi
Ġdi ka
ĠM i
ĠtÃ¨k nologi
apah it
8 5
k anc
p ro
z im
at awan
ĠB andh
ĠC ara
Ġmb antu
iv isi
Ġsar ujuk
Ġdhi alÃ¨k
ĠkÃ©m awon
v al
er d
im er
ĠR I
Ġny ar
Ġant arane
ch en
eri al
P ak
m al
p or
p ura
ĠK us
Ġw untu
Ġr aks
Ġnd arbÃ¨ni
Ġmb eb
Ġngr ujuk
ĠSo uth
ĠSam udra
Ġregi on
Ġasl inÃ©
S uku
j eneng
Ġ ent
Ġ asin
Ġp ola
Ġk Ã¨
Ġm otif
ĠS osi
ĠA ustria
go ta
Ġf ot
Ġar ta
oj ok
Ġkons Ã¨p
Ġpit u
godh og
urm atan
¿ ¼
ing i
Ġs apanunggal
ar s
at orium
ika k
ĠB ambang
ĠC al
Ġpr es
Ġpen umpang
Ġprof esi
ĠMangk un
S um
S et
Î ±
ï ¿¼
Ġs kala
Ġp ri
Ġg amb
ĠL ombok
Ġc andh
anj ian
Ġ196 5
ĠBi asane
ĠAdip ati
T anggal
s at
Ġp impinan
Ġk um
Ġr usak
Ġc eka
ĠG ir
ob atan
eksi ko
Ġdisi apake
Ġda erah
Ġs and
Ġs ebutan
ĠS ol
ĠP emb
Ġkar yanÃ©
Ġag ami
Ġof f
9 7
Ù ĥ
ĠS agara
ĠP asifik
ika ken
ĠC omp
ĠE ng
Ġ198 1
Ġ197 8
Ġdipuns ebut
Ġkom edi
Ġarsit Ã¨ktur
Ġcr ita
9 5
D aftar
p s
Ġk ut
ah e
Ġg awe
ud an
Ġf oto
Ġh uruf
Ġmas yarakat
Ġdis enengi
Ġol ih
Ġcacah ipun
Ġkur ban
har ata
Ġ16 0
Ġdid eleng
Ġkamard ikan
D i
E FA
uw asa
ê¦ ¼
iv i
imp ang
Ġsp esi
Ġir isan
Ġnom inasi
lin es
Ġcendh Ã¨k
r um
á »
Ġt em
ĠP eter
ĠN e
Ġpro ses
uwur Ã©
re e
Ġ197 2
Ġreka man
M al
j ata
Ġ usus
Ġs emu
in ter
angan i
Ġket h
ĠTim or
âĢĿ .
ĠPak istan
Ġpent ing
akas sar
L a
p owiat
r angan
ĠS istem
Ġng gayuh
Ġg anti
Ġg ampil
ĠT et
ec k
emp uh
Ġ197 5
ĠSan adyan
Ġmak na
Ġmak luk
mat ika
8 8
Ġ Ã¨st
Ġp op
in angun
Ġb et
Ġng isi
ĠA y
Ġg ul
ĠT o
Ġr asanÃ©
ĠN ap
ĠC r
ĠR iau
ĠU jung
Ġkon f
Ġmat Ã¨ni
ĠAir lines
ĠÃ¨n ergi
tain ment
an as
Ġka si
Ġka isar
ĠP angg
ĠP owiat
ĠD on
id u
and ia
Ġper lu
Ġngg anti
ĠMah amantri
ĠMed an
B S
P a
P o
P las
b ot
f or
o id
at osipun
Ġm atÃ©
ĠM eksiko
Ġg ug
im i
Ġman aj
Ġngl akokakÃ©
Ġ197 4
ĠMaj apahit
ĠTab along
ĠGeor ge
Ġboj onÃ©
4 4
B ar
F r
S ep
l ikasi
t il
Ñ Ģ
Ġp okok
Ġm enengah
er teni
ĠM ant
ĠW ah
ĠF in
âĢ Ķ
Ġnd adosaken
st ur
engk ulu
eh ake
apur Ã©
Ġkalawar ta
Min angka
C ara
l ung
un anÃ©
ĠK ons
Ġn uli
ul akÃ©
ĠM ilan
ir ik
Ġkac athet
emp alaken
ĠAn yar
ĠSt ev
Ġun it
Ġob jek
urn al
ĠArg entina
eric an
K er
W Ã©tan
l ia
p ati
y d
Â Ń
Ġng am
ĠD epartemen
ĠW est
and an
Ġsa indh
st ad
of t
Ġ5 00
B anjar
S urat
k h
ĠK y
Ġw al
ab atan
ĠB ord
ĠR i
ed e
oh arjo
osi l
Ġkr eteg
Ġ4 6
iya p
indh ah
Ġsem ana
Ġngur angi
Ġsandh angan
A t
B on
K as
K om
M et
v ik
Ã© j
Ġp iy
ĠP Ã¨rsi
ĠA si
Ġsaka b
Ġny engkuyung
andh eng
Ġket ua
Ġ196 8
hir e
ju angan
Ġditind akakÃ©
7 7
P al
S ek
l ar
Ġ ha
ĠT rans
ĠD PR
Ġmen j
Ġ201 9
Ġun tu
200 4
Ġmenang akÃ©
Ġdhi sik
ĠAt l
Ġnind akakÃ©
Ġgarw anipun
ĠPic tur
Ġ ayu
Ġng arani
ag am
ĠD NA
Ġdit andur
Ġh Ã¨ktar
Ġmb ukak
Ġngl ambang
re y
ĠSur at
Ġmak ili
Ġart ikel
Ġang Ã¨l
Ġbuk ti
Ġkand el
ĠS ah
ĠP unika
iy aran
Ġr encana
ĠR p
ĠH ak
ĠU s
Ġdig olong
oh n
Ġob ah
Ġpet eng
Ġbub uk
Bi ografi
d ipun
n ia
al ap
ĠK ir
Ġn uju
ĠP iranti
ag as
up ang
amb o
Ġsar eng
ungka si
ambang unan
ĠÙ Ī
akter i
Ġnamb ani
6 6
ang e
Ġm emp
ul tur
es us
ĠL in
anj ut
ĠPr aga
Ġgel ombang
Ġnem t
S ur
l iti
n ing
w ood
Am arga
ĠEnter tainment
P el
p ut
ar ja
Ġk Ã©nÃ©
Ġw angsul
ĠJ on
Ġr ek
ĠL iverpool
ĠF ri
ĠO s
Ġuk um
Ġ15 0
ell o
ĠKedh ung
ĠgÃ©n erasi
Ġpakar yan
Ġkaka win
d an
d is
e us
Ġd em
en za
Ġl ebet
ad is
ek san
ĠC ep
ian o
ĠMal ayu
Ġ196 9
Ġaktiv itas
4 3
P h
ing kang
Ã© yan
am is
ĠK ro
Ġw ulu
Ġj asa
ĠC ha
ĠIn dh
tr an
Ġpan emu
Ġdiw Ã¨n
1 00
b au
b uku
an ah
Ġl ulusan
Ġm undur
Ġb edh
Ġw ulangan
ĠT ir
uw Ã©nÃ©
hi ma
ĠW ewengkon
eka s
Ġwar n
Ġat uran
ĠSt adion
Ġsw anten
Ġdid uw
Ġul ang
ĠSo eh
Ġputr anipun
e et
Ġk ita
ik iran
ak o
ĠT al
ĠR eal
ĠH id
ĠH ot
ĠH ill
Ġpang r
Ġml ayu
eth ok
Ġmar gi
Ġsem i
inc i
ĠCol leg
Ġef ek
f il
t ext
Ġk emp
Ġk wart
at is
as s
ĠK aka
Ġb asis
ĠB an
ag ama
Ġr up
Ġr ef
emb ungan
angs anÃ©
Ġmaj alah
ĠColleg e
L ED
O C
P erang
d y
Ã ¤
ĠJ o
ĠW id
ĠW oh
ĠF ebruari
eneng akÃ©
ken al
ĠAg ama
Ġkenth el
P at
g uru
Ġp us
aw ijaya
Ġb ers
ĠS uci
esi den
Ġwis atawan
omb inasi
ĠAg eng
Ġpel awak
Ak sara
abit at
s ch
Ã ±
ar wa
Ġl iga
ara si
Ġj us
ĠG or
ra ina
anc an
Ġdis ebut
oj o
Ġdisaj ikake
Pur w
A D
u hi
en o
ĠA dhedhasar
Ġr emb
ĠN ar
ĠL et
ĠC a
ĠH el
insi p
ungg aling
li hipun
Ġdipund adosaken
p ing
Ø ©
Ġd on
Ġl sp
Ġb esar
ĠA v
Ġg uwa
ap ati
ĠD um
Ġ196 7
Kari er
ê¦ºê¦ ´
Ġs ebuah
ĠK um
Ġb ert
Ġb ola
ĠS es
it ext
ab ad
uw atan
isi ka
re vision
Ġbi asanÃ©
Ġ196 3
Ġmangg Ã¨n
Ġgag al
Ġilm iah
ĠÃ©w ah
wik itext
U N
k om
w anipun
Ġ Ã©n
un dhang
ot i
Ġf lash
ke h
Ġsam anten
Ã¡ n
Ġmbiy Ã¨n
Ġdhew e
Ġkah anan
Ġkwart al
A C
S in
Ġs ew
at awis
Ġm antri
Ġka ki
us h
Ġg abungan
Ġsaw iji
Ġdig abung
Ġpro yek
apan uli
emp atan
uka an
Ġdipuns erat
ĠÃī konomi
Ġkes enian
se a
Ġsej arah
Ġpanalit Ã¨n
ĠHind ia
T ul
l ima
t ip
Ġ ed
ĠB upati
Ġny rit
ĠU EFA
Ġaw an
Ġkl as
Ġseri al
Ġsis wa
9 9
k itab
Ġkar yanipun
Ġsap a
Ã¨t Ã¨ng
sp irasi
unc i
Ġpadh et
Ġkari er
ĠRich ard
Ġ angk
ing u
Ġdi am
ĠP asisir
ro b
ĠC acah
isi p
adh ang
uj a
ê¦ «
Ġkl ambi
Ġbaka t
ĠMas ehi
Ġmig unakaken
Ġ193 0
Ġk ewan
Ġt ep
ya ir
ol as
ĠL agu
ot ong
ind a
Ã³ n
ahar ja
impi ade
Ġperc aya
P S
S c
j inis
Ġs ebab
Ġp angkat
er g
ĠB ak
ĠJ en
Ġdh apurÃ©
ent al
Ġny el
Ġmb intangi
Ġ. ..
mb ol
ĠSaw ijining
if ikasi
Ġ25 6
Ġmul ut
Ġperk embangan
l ip
t iyang
an ing
Ġk ew
at ah
en ta
Ġn asi
Ġng agem
ĠM is
ĠM akassar
ĠJ er
sa iki
ĠO n
engk onÃ©
Ġ197 1
unj ara
ĠBuk it
ĠSoeh arto
4 1
K on
b e
r uk
r ana
Ġl ep
Ġm isi
as aken
ĠK ag
Ġn el
Ġw adhah
et ahaken
ĠT apanuli
ĠD am
om e
anj a
Ġas p
ĠCh rist
ĠGr and
ĠSo ekar
ĠHar ry
Ġsed ulur
Ġpindh o
Ġtran sportasi
fer Ã¨nsi
Ġditambah ake
ĠNus antara
Ġkoloni al
8 6
Ġd uduh
Ġp i
er k
eng ga
Ġng adegakÃ©
ĠT ak
go s
Ġr ega
ac hi
ek i
ten si
ed ang
akÃ© h
Ġny ata
li e
Ġh al
ow a
ĠPro d
ĠKom un
Ġgeg rem
mod ium
Ġngembang akÃ©
Ġpedh es
' .
P asisir
S o
Ø Ń
Ġd arb
Ġk end
al ih
Ġm ess
ĠP ri
Ġng omong
ĠM ay
uk uhakÃ©
aj aran
ĠW ill
angg uan
Ġf iksi
Ġkab el
Ġpang aji
Ġ197 7
Ġomah Ã©
ins tan
8 9
K omp
P et
h ana
Î ¿
Ġj anganan
ĠL uc
amb angan
ĠG ajah
ot ik
ĠAm b
ĠMar y
ĠAk sara
Ġot ot
Ġment ah
E l
M a
m et
r aga
Ġs ac
Ġl int
Ġt ak
ĠK ing
ĠP e
em ar
dh ikan
ĠB engkulu
Ġr itual
ĠW on
id in
ĠG a
Ġsaw ah
sp or
Ġmengk Ã©nÃ©
ĠHol land
ĠTang erang
O N
Ð µ
Ã© o
Ġd ong
Ġk eg
Ã¨ dh
Ġt ut
Ġt ataran
ad ir
ĠP ot
el ola
ĠKed ung
K embang
g yan
Ġ any
am ulya
ĠS ec
ĠB ujur
ĠA th
ga si
ong e
Ġf okus
ĠF ar
Ġman eh
Ġdis trik
ma il
Ġ7 5
Ġorgan isme
Ġnyebab ake
B ahan
Ġd at
al isis
Ġm Ã©t
Ġdi godhog
ĠB ut
ĠA kad
ĠT laga
ĠR esi
Ġnd eleng
umb a
Ġtel es
ĠAs s
ĠIr ak
ĠKadh iri
ĠHen ry
S up
Ġp osi
aw ani
Ġb ah
Ġn ek
ĠB ud
Ġj uta
ep okan
ĠN atal
ĠG uru
anj Ã¨n
eka si
ĠPr ab
Ġant ar
Ġaw ake
ow o
Ġ18 0
Ġning kat
ev i
av a
Ġpem impin
Ġsuk sÃ¨s
ĠWis nu
Ġngrampung akÃ©
Ġraks asa
ĠPictur es
Ġmess aging
4 2
b aru
Ġl arÃ©
ak erta
Ġt ivi
ab uk
ĠG e
Ġsaw atawis
Ġdip r
Ġmusi si
udh uk
Ġ196 2
200 5
Ġku i
F I
S ap
w ich
ar um
Ġp amain
Ġk embar
Ġb usana
ul ia
ĠM os
ĠJ ac
amb at
angg ar
ud ara
ia ya
ê¦ ¥
Ġpam anggih
Ġpam impin
ĠMad ura
ĠÃ¨t nis
m ani
t embung
Ġ ac
Ġm and
er ti
Ġt ump
aw ane
Ġdi asil
el ing
ĠM u
ol Ã¨k
ĠN ing
ed alaken
ra ya
Ġkap isah
Ġkar ang
Ġkomp onÃ¨n
Ġ194 2
Ġngadh epi
ĠWond Ã©nÃ©
. )
C athetan
Ë Ī
Ġ |
in er
ĠK han
ĠP aku
ĠP upuh
Ġr aos
ĠIn ter
id ak
ri o
ĠV ol
Ġngr ebut
fi eld
Ġpopul Ã¨r
Ġsuk et
ĠOr ganisasi
ĠKart ini
ĠRus lan
Ġkalawar ti
Ġdunung Ã©
P ara
b eda
p ulo
Ã ł
Ä ķ
Ġt iba
ĠS hah
it z
ab harata
Ġg e
ap or
Ġr esik
eg et
ĠF o
Ġ4 7
Ġdr iji
ĠDen pasar
Ġoksi gÃ¨n
P anjeneng
U S
h at
ur ang
ĠS ej
Ġn ata
Ġdi isi
ul lah
ika tan
ĠD ivisi
Ġkap it
Ġas ing
Ġal on
ov er
Ġ194 6
Ġngandh araken
ereng ipun
m ati
Ġd ed
Ġt uku
Ġb e
ĠN at
Ġtaun an
ay angan
st el
Ġag ung
Ġpeng alaman
ĠÂł ĠÂł
Ġgur ih
ĠUk raina
Ġnganc ik
Ġsaindh enging
A L
K aw
T op
b all
g uruan
k g
t el
Ġdi akoni
ĠU S
end ra
Ġ3 2
Ġ196 1
ĠNor way
8 7
Ġ end
Ġp ek
ur up
ĠB isa
Ġg endh
Ġ( ;
Ġr uang
ĠC amp
Ġc ap
Ġny aw
emp uran
Ġwar isan
Ġsad onya
rop ol
Ġbi ologi
Ġkom ersial
A c
J aman
M us
w e
Ġm ayoritas
in ah
Ġt epung
Ġn ang
Ġg itar
ĠL ar
ig u
esi sir
Ġlum rah
Ġbi asa
ĠNg anti
Ġ194 8
ram ayu
As al
Ġprodh user
j eng
Ã© san
Ġn ormal
ul um
Ġng angkat
Ġpun cak
Ġsak edhik
Ġak ibat
Ġdip angg
ali b
Ġkas ebar
ĠakÃ¨h Ã©
omb Ã©
Ġjam u
Ġked adeyan
ĠØ £
ye ong
Ġanggit anipun
i es
l ok
w o
Ġd esa
Ġk edh
at os
ĠK os
Ġb atur
eng e
ĠM ada
ĠM az
ek tron
ĠW ektu
ĠR eg
Ġu j
Ġkal airan
ra z
ent eng
ent ukan
Ġak u
Ġh awa
anggal an
ind er
arah aken
Ġdir ancang
Ġsen jata
Ġind iv
San ajan
ĠBeb ungah
Ġsara f
9 2
H an
P ers
b is
d ina
i hipun
p in
is k
Ġdi kar
ul at
it or
Ã©n an
ĠC he
Ġc uci
ĠG and
ay on
Ġf aktor
ĠPr efektur
Ġjinis ing
Ġab rit
br ani
Ġlel uhur
ĠBab agan
Ġngan akakÃ©
ĠÃ¨st ri
Ġdigolong akÃ©
P iyambakipun
W ujud
b and
t us
Ù Ĥ
Ġ aman
Ġd ur
ĠK ala
ĠS amb
Ġng empalaken
ĠN ational
ĠW ujud
Ġkal or
ĠF ir
Ġas am
Ġkab eh
ĠV ir
Ġsp ir
Ġpanc Ã¨n
Ġtuk on
ĠTah un
M ah
l os
w ana
ar awan
Ġb ak
Ġn e
em ent
ĠL aw
ĠH yang
Ġf asilitas
ê¦ ²
Ġ4 9
Ġ4 00
Ġwew engkonÃ©
Ġ194 9
Ã©m ografi
Ġdisi mpen
Ġilm uwan
Ġoy ot
G uru
Ġ Ã¨f
Ã© mb
Ġp ublik
is ta
or g
el sea
ĠM y
ĠJ ean
ij a
Ġ19 20
Ġman ut
ê¦ ®
ĠNg awi
Ġul ama
ph one
ĠJos eph
Ġte ater
ĠmatÃ© matika
l ine
Å ¡
Ġl ayanan
ak Ã¨n
Ġn ada
ĠD ayak
ĠR at
adi o
ê¦ ¢
ĠPr aj
Ġpang embangan
Ġkl asifikasi
ĠSaw ise
aks ud
Ġmil a
olog y
-- -
Ġemp uk
Ġoff ice
Plas modium
f t
g y
g in
Ġp o
si pun
er Ã©
er es
am inipun
ik ir
Ġt it
Ġb ad
ut usan
ul ak
ĠB ern
ĠB apak
ĠB alai
ĠT y
ĠJ ack
ĠD ong
ĠD aniel
ĠH it
ĠâĢ Ķ
edhiya kake
Ġkandh utan
Ġyak uwi
Ġpres enter
W ar
c ha
k ol
r ih
ing in
Ġs it
Ġl et
or gan
ab asa
Ġng aj
ĠB Ã¨l
ĠM ac
ĠT iyang
ara i
Ġr awuh
ek dal
Ġc or
angg e
ĠInd ramayu
Ġdipun angkat
Ġny er
osi t
Ġtr esna
Ġpel atih
Ġm adu
ad emy
aj aya
ĠD om
iw ayat
Ġny ebat
Ġh ar
Ġ196 4
Ã©m okrat
Ġtah u
ĠBay ern
Ġmut usakÃ©
Ġpej abat
0 5
A T
S am
j am
ka w
Ġd ad
Ġk ualitas
Ġl e
ĠS om
el ok
Ġr agi
ep akÃ©
eg akÃ©
ic s
Ġ3 6
Ġsad ina
Ġsin yal
Ġpag awÃ©
Ġdipunl ampahi
ĠIst ilah
ĠMart in
Ġtetan Ã¨n
c us
Ġ *
Ġs oklat
Ġl un
ĠP aling
ali an
adhah i
Ġro ck
Ġket ata
200 1
ĠKeb on
ric k
Ġgl obal
Ġnamp il
Ã¨p Ã¨n
Ã¨w Ã©
ĠKas ultanan
ĠMusi c
Ind onÃ©sia
Ġsum ebar
Ġsah am
eau x
W il
l en
v en
Å Ľ
Ġp uj
al ak
Ġl omba
on dhang
ĠK im
Ġb a
ĠS ip
ĠS oc
il ia
ĠM r
Ġc angk
Ġdh ahar
Ġsaj atinÃ©
Ġmung kin
Ġtek nik
Ġ196 6
200 6
las ma
angkep i
Ġsk Ã©nario
l is
Ð ½
ã ĥ
Ġ Ã¨s
Ġ akÃ©h
Ġd ugi
Ġb any
Ġb erb
ĠP art
ab et
dh ut
Ġng anggÃ©
ĠJ ay
Ġc onto
ĠR aj
eka h
Ġdig ambar
Ġngg ant
ain an
Ġat as
unt ara
Ġ194 4
Ġ195 9
Ġmbeb ayani
S istem
u i
un o
Ã¨ kÃ©
ut anÃ©
Ġdig ital
art awan
ow er
ov a
uc k
ĠAr ya
Ġpan umpes
Ġkul iyah
aks ara
iyos aken
ĠØ ¨
Ġditem oni
ĠHam engk
Ġteb ih
Ġl ombok
Ġka dhang
ek ut
Ġdis utradarani
ert os
Ġsep uluh
erm entasi
Ġku at
Ġtah ap
Ġê¦ ²
Ġkomun ikasi
Ġsk or
Ġnyebab akÃ©
ebl ug
S ak
j as
r awa
Ġp ew
Ġt engahan
aw aran
ĠP us
ul e
el le
Ġc om
ĠIn do
ĠAn anging
ĠAn th
uka ke
angs ang
ĠSel at
awar ta
Ġkol eksi
Ġseni or
Ġsangisor ing
B a
B ot
j al
r iy
al as
Ġm om
ik et
Ġt erb
ĠK af
Ġb olongan
ĠP embangunan
ul yo
us uma
ĠD ep
Ġr eli
ih aken
ana u
ĠL embaga
ĠW i
ĠV i
ĠAn n
ĠMar k
ĠGr up
Ġ194 0
Ġkadh angkala
iring i
ash ington
Ġwol ung
ason ic
Ġngew rat
M I
S alah
p eng
or al
aka m
ĠT op
ĠJ emb
ĠD ay
eb us
os Ã¨n
iw as
Ġpr ing
ĠY ou
Ġal asan
200 7
Ġngasil ake
Ġmit ologi
Ġgegrem et
0 6
d Ã©sa
f ik
r ew
Ġs isa
Ġk oran
en ipun
Ġb Ã¨tÃ¨ng
Ġdi olah
Ġng lair
il in
ĠN egara
ib u
Ġ3 3
Ġkep Ã©ngin
Ã¼ n
á¹ £
oth ak
dow oso
w ang
Ġp ahlawan
Ġm otor
Ġw Ã©
dh ana
Ġj elas
ob o
Ġst adion
usu f
Ġmon op
Ġseb agai
Ġbek san
Ġpram ila
Ġalk ohol
S ar
b ab
e yan
k inten
Ã¨ kaken
Ġt uru
it akakÃ©
Ġ( ),
Ġr aj
ek u
ay asan
ub uk
adh anipun
Ġsip il
Ġputr anÃ©
E T
_ _
g l
Ġ ayam
Ġs ari
Ġp ip
Ġt anggung
aw anan
Ġb angk
Ġb aÃ©
ĠS itus
ĠB eng
es u
asi km
Ġ5 5
Ġat usan
ĠZ h
yar at
Ġpasi r
Ġpers egi
ĠSri w
Ġur ang
N y
m Ã¨n
Ã ¦
an do
Ġl awan
ĠS eo
ĠS anto
aka i
ĠB rah
et t
ol ia
eb ang
ĠW e
Ġkap acak
Ġper l
Ġwiwit anÃ©
emp ongan
200 9
Ġuw is
Ġadministr asi
H ol
l ot
t anÃ©
si al
Ġb akteri
ĠS har
ab ag
Ġng ent
ĠB est
ĠR ay
id ik
Ġpar iwisata
Ġpas ta
ĠAs h
Al bum
ĠIb u
ĠSumb a
Ġngend ika
E N
S er
j e
Ġd arah
ĠS ya
ĠS and
Ġw eb
Ġg endÃ©ra
ep atan
ahan ipun
isa u
Ġpen ari
lat ih
Ġ4 8
ers on
Ġpeny akit
Ġmir sani
Ġmr atÃ©l
ampur na
Ġpl astik
ĠPert ahanan
T et
Å Ħ
Ġk umpulan
in Ã¨t
Ġng ajak
ĠB ah
es or
ara pan
amb ahi
ĠG edh
ent u
ĠCh elsea
Ġ194 7
Ġup aya
Ġnyat akakÃ©
% ,
l l
z u
ng g
ang anÃ©
Ġs ujarah
Ġd ist
Ġp sik
Ġk ekar
Ġl uar
ad ang
ut us
it r
Ġng owahi
ĠD ipun
ĠL and
angka l
Ġmen c
ĠAr s
Ġat awa
Ġlum ah
lit ian
Ġmus lim
Ġmag epokan
Ġmendh et
K el
j en
m un
s un
ang d
Ġs Ã©ri
Ġk ot
al Ã©
Ġl ampu
Ġb Ã©
Ġdi al
Ġdipun ter
Ġny ep
ingg alan
ĠSt ar
Ġpert engahan
Ġsem angat
Ġset unggal
Ġmig unani
Ġcur es
D Ã©nÃ©
Ġ anget
al isasi
Ġt ir
aw ung
it Ã©
Ġng akoni
Ġg angguan
ĠD alam
ĠL os
Ġtek stur
Ġwil angan
Ġpern ah
ĠKay adÃ©nÃ©
Ġtik us
Ġprofesi onal
= "
B eb
P P
ah at
Ġb en
ad en
ĠP ungkas
el ik
ĠM uara
ĠT asikm
ĠD usun
Ġkap uloan
amp ir
ind akaken
Ġpeng h
Ġ195 8
lu enza
az i
Ġdim ain
Ġam ung
ĠPl ay
aug eran
stel asi
7 8
K anthi
R Ã©
Ġt andhing
as p
iy antu
Ġut ek
ay anipun
ub e
ati ons
emp or
endh et
emu an
Ġdic ekak
Ġ12 0
Ġtim nas
Ġkom ik
ĠPro t
inc ang
Ġdipunw ontenaken
ĠJeneng Ã©
Ġnov el
ĠPurw orejo
ead phone
ĠAkad emi
7 6
M aj
n d
v an
Ġk endh
ĠK ah
ĠK itab
ĠT uwuhan
Ã©n ing
ĠC el
Ġmin eral
ti an
ĠV GA
Ġdik irim
Ġngr usak
Ġkag ung
Ġset aun
Ġbuk it
Ġaka dem
ĠPortug al
Ġpart ikel
ĠÃ¨lÃ¨k tron
ĠwÃ© dok
B ob
J ohn
l ac
l Ã¨k
Ġp iyambakÃ©
ul er
ap aken
Ġc aranÃ©
ĠInd ra
Ġsal ad
esi ki
ĠY esus
Ġnd ad
ug el
ev el
enc an
ĠMan unggal
Ã©t anÃ©
ungk inan
Ġgarw anÃ©
ĠVic tor
c ip
t is
Ġm rip
Ġt on
ĠI si
ĠN ic
ĠN ord
ĠC ont
Ġdipun pr
adh uk
int on
Ġsin ar
Ġmir ib
ĠSuka bumi
Ġkakuw atan
ĠkÃ¨ ju
K T
L air
Ġs o
ak hir
Ġt ab
Ġdi owahi
or it
Ġ( ,
ĠW ashington
op a
Ġkas edhiya
yan ing
ĠMin ahasa
Ã©d an
ku it
ĠFr anc
Wal anda
ĠSm ith
Ġcuw Ã¨ran
Ġpeth ak
m ana
r ay
Ĩ Ĵ
Ġb iji
ĠB in
ĠJ aman
asi pun
Ġr eca
ĠN abi
ĠR ib
ĠE mp
Ġ4 4
ungka san
ĠMah abharata
ĠPut ih
Ġgag rag
ĠBord eaux
G C
G ar
m el
an on
at esi
Ġm o
aw ahi
Ġb uruh
ĠS ong
ĠB ers
ĠM es
et is
ĠC er
ari f
Ġsaj roning
osi asi
Ġv ol
Ġtul adha
ĠKom isi
ĠAbdul lah
Ġwin ates
Kul awarga
Bon dowoso
i ang
Ġs ent
Ġm elu
am o
as rah
Ġdi ri
Ġdi visi
ĠP any
ĠW ol
amp ing
Ġh ot
Ġnj urung
Ġ5 6
Ġtin ulis
Ġat au
ĠKeb umen
Ġkam enangan
tim ologi
ahar gyan
emat ika
Musi yum
Ġkulawar ganÃ©
S ang
S en
i as
l emen
m ada
m ond
s Ã¨l
Ġs imp
Ġd ana
Ġl angka
Ġm adh
ak tif
Ġka anggo
ant is
ĠT am
uk Ã©
Ġr uangan
Ġr ating
os e
angg an
ĠH im
Ġkap rig
od ra
Ġpro yÃ¨k
Ġwujud ipun
Ġsan saya
Ġ17 6
An t
201 0
Ġmur ah
ĠKed iri
Ġcendh ak
ograf is
B at
B en
P rau
s or
Ġs anten
ĠK ec
ĠK ampung
ĠB ima
ĠI brani
Ġg ant
ĠT amil
ĠD ol
go ng
Ġdh Ã©
ok e
Ġper son
Ġas t
ĠPr asasti
angs awan
ĠSur ya
Dh Ã©mografi
Ġorgan ik
Ġsed aya
ĠGar ut
ĠAngel es
3 00
K ol
ĠS qu
ul t
ĠD as
op e
gar ia
utri si
Ġastr onomi
0 9
g n
Ġ itu
Ġp ungg
Ġt urunan
aw atan
up an
ep end
Ġny ithak
adh ing
ati ga
eka t
agu e
erat ur
ĠPut ra
Ġbag Ã©an
ĠGi anyar
Ġnuk lir
Ġbut ter
S amb
h ak
ik sa
ĠK itha
Ġb Ã¨g
ab ah
ĠB awang
us s
Ã©n a
ĠH at
Ġsaj atosipun
Ġdit empuh
ĠKr ist
Ġdil ak
Ġ194 3
Ġhi p
Ġpanj ang
Ġding go
abor atorium
ĠUd ara
Ġdisebab akÃ©
P upuh
g u
r ut
Ġd alu
Ġp embangunan
ĠS angs
Ġw artawan
em ahan
ĠB ekasi
il o
ĠM un
ag ak
ĠL umb
ĠW a
ĠG uwa
ĠH asan
ent r
Ġny i
ĠY a
Ġv Ã¨rsi
Ġngl ajengaken
200 3
ene hi
Ġdipunw edalaken
Ġmingg ah
Ġform al
Ġakir Ã©
Ġngalah akÃ©
Ġdiduw Ã¨ni
l op
p y
Ù ģ
Ġl arang
aw en
ĠP S
Ġng ec
ant r
ĠT Ã©
Ġr uwang
ĠL im
ĠW ijaya
anj eng
op ia
ic aksanan
ĠAm p
Ġpad atanipun
Ã©nt ar
Ġtet embungan
ĠSur iah
Ġib unipun
Ġpag esangan
ĠPa ulus
ĠKes enian
Ġtap el
Sas ampunipun
ĠÃ¨k sp
% .
M ad
o do
Ã £
Ä ĩ
ĠP lat
it anÃ©
Ġng at
ĠT ib
ĠJ urusan
ep aken
ĠL ama
ĠW angsa
Ġut amanÃ©
Ġf estival
Ġmb abar
Ġpad atan
Ġkl or
re f
ev in
Ġkag abung
if e
ill er
Ã©d akakÃ©
ĠPul ang
Ġâ ĨĴ
Ġposi tif
ĠBÃ¨l gi
p apan
ar ake
Ġp ah
Ġl ahan
ĠK ert
Ġdi ayahi
ag en
Ġg odh
ĠL el
Ġdh aratan
id en
ed an
ĠF i
Ġngg antos
ĠPer si
Ġst at
Ġrac un
Ġkeb ak
ĠFr ancis
Ġkil Ã¨n
Ġngan ut
ereng gan
Sad urungÃ©
Ġindiv idu
7 9
B uku
j un
z ar
Ġs emb
Ġs op
ar sa
un da
ut akÃ©
ant au
ĠM am
ĠY u
eka ran
Ã¨r gi
Ġkar aton
aring aken
lan kt
Ġdik onsumsi
ĠAb ang
ĠgawÃ© an
unj ukan
ĠPem ilu
Ã¸ y
Ġkont rov
Ġtip e
Ġwol u
ES CO
ĠPandh awa
2 000
U p
l ed
Ġl ip
ak ir
Ġt eh
ĠS ug
ĠP isau
ab ol
Ġng enal
ika la
ĠN ig
ĠW ik
ĠR ic
ĠH all
ov asi
Ġro h
Ġdis et
ev er
Ġ195 7
ĠAc ademy
14 6
ĠKarang asem
ĠLeb ak
É Ļ
on do
ĠS ib
ut uhan
Ġw ah
Ġw ana
el ah
ĠA yu
ĠM eg
Ġsal ju
ĠU U
eka m
Ġsaj inis
ĠkabupatÃ¨n Ã©
ingk ir
Ġsang a
Ġdr ajat
Ġlap is
Ka uripan
ĠKaf ka
ĠSeo ul
I wak
M el
Ã «
Ġl ebar
as u
ĠK Ã©wan
ad or
Ġc acing
os om
ĠH ard
ok rasi
ĠF orm
ĠY ayasan
end ang
ard ika
ĠBr it
ĠAb d
Ġpungkasan ing
Ġangka tan
Ġkamp us
Ġel ektron
ĠRam ayana
Ġmundh ak
ĠSov y
Ġmam alia
Ġdarb Ã©nÃ©
5 6
j ord
Ġd ataran
Ġk ombinasi
Ġm arga
er ek
ĠS he
Ġw ir
em o
it ri
or asi
ika han
il d
uk iman
Ġj umbuh
ĠD erb
kang go
Ġr ant
ed erasi
ip e
ê¦ ª
Ġnj l
Ġdik l
Ġbal apan
tern atif
ĠAd am
Ġpers Ã¨n
ĠTel uk
Gr Ã©ja
Ġkond ur
fin isi
p ha
Ð º
Ù ĭ
Ġp lat
Ġl ungguh
si st
on ing
ut uhake
Ġng ajeng
ĠM angsa
up ut
eb er
Ġr aket
Ġdh Ã¨wÃ¨
ok u
Ġmin or
edh i
ter a
Ġwar ung
Ġdib ukak
re at
ĠDen mark
Ġkompl eks
Ġandh ap
C har
D an
M A
P es
l agu
Ġm upangat
Ġb akt
Ġn emb
ab eth
el li
et te
Ġg ro
ĠJ ogÃ¨d
ol lo
Ġr awa
emb ahan
Ġdip l
ĠPr im
Ġkas erat
Ġum p
rah im
ont alo
ungk ung
Ġmr iku
ĠSek retaris
aru hi
Ġlemb ah
ĠBul garia
ĠOl impiade
Ġngundh akakÃ©
ĠBandh ung
ĠTasikm alaya
I T
I st
L intang
j aya
p us
y angan
Ï Ĥ
Ġs ud
Ġp ambangunan
Ġl ak
Ġb ulan
ĠS iti
um rahÃ©
eg ani
Ġu jung
Ġf lu
ti ga
st ein
ring in
Ġber k
ĠGro up
Ġnggambar aken
rid ge
dow s
ĠNom or
Ġdileb okakÃ©
Ġkonf lik
Ġnglambang akÃ©
D I
K h
y in
Ġd ok
Ġl it
ak tu
is ter
ant Ã¨n
uk o
Ġdh ataran
op er
Ġpro s
aja an
umb angan
Ġpang uwasa
Ġkaw onten
Ã¨ng eti
Ġkag awÃ©
Ġpap anipun
udaya an
Ġ195 5
Ġjal er
te in
Ġkakuw asan
Ġmonop onik
K B
g ol
w ari
Ä į
er onÃ©
ĠS or
Ġn ump
Ġng il
el ang
ĠB udi
Ġr ap
ĠW ayang
os of
Ġny athet
Ġdip at
eka ken
ĠMar s
Ġses awangan
Ġket an
ĠBat ak
ĠBat ur
Ġ195 2
Ġmar kas
Ġpol itik
Ġpulitik us
su f
Ġmeng sah
Ġko ordin
ĠTek nik
ĠSov iet
Ġpalakr ama
lankt on
G en
O R
Q ur
d ah
l on
t un
ang kÃ©
Ġl aris
Ġl indhu
ik h
ĠK amar
Ġb at
ad wal
ĠS it
Ġn erbit
ĠP u
aj ahan
ĠD al
and u
ud y
ĠU lu
op rak
ĠE t
ê¦ §
Ġpro m
le x
ont rol
imb ing
indh ungi
ĠSa udi
ĠSa punika
Ġinggil ipun
ĠMusi k
Ġnil ai
krip si
ĠKut ai
ĠKath ah
ĠSoekar no
ĠÃ¨f Ã¨k
M on
T er
d ad
k es
á ¸
Ġ er
en sis
ak Ã¨
Ġb engi
Ġw ajib
aka l
il y
Ã©n c
ĠN ep
os ok
ĠH igh
ati an
anc angan
ig ur
ist iwa
Ġkaw Ã©ntar
Ġsp esies
Ã©k an
Ġ195 6
An d
Ġprof Ã¨si
ĠMa x
erus alem
ĠCl ub
á¹ Ľ
kanc anÃ©
S ej
s aw
s ab
Ġs eth
Ġka f
Ġlan dh
pun dhut
ab ai
Ġr ak
ĠN go
ĠC as
ĠH ab
anj ir
ĠPr amb
ib ahan
Ġker as
Ġlum aku
Ġlum ahing
Ġpul isi
ĠBand ar
Ġpes erta
Ġkeb o
Ġtah ta
iet y
sk up
Sa iki
ĠKro asia
P i
P angg
j emah
m os
s ul
t uk
Ñ ģ
ã Ĥ
un sur
en ia
ĠK amp
Ġb angsawan
Ġlan d
Ġw er
Ġ1 000
ĠD alan
Ã©n ipun
ĠR asi
ri sis
aran ing
Ġdum ad
Ġdic ekel
Ġkapernah akÃ©
200 8
Ġset atsiyun
adÃ© san
ĠPen y
ĠSaj arah
á¹ Ń
Ġinf luenza
Ġek sp
B and
K ur
V I
Ġs ampurna
Ġk ekal
Ġm ekan
in f
Ġka urut
Ġb atu
ĠS ay
Ġn utupi
Ġng umum
ĠM inggu
ĠD aging
hi o
ĠR ed
os en
ri e
Ġny uda
ĠU ng
andh angan
ĠPer d
Ġngr ilis
Ġpam ilihan
ĠBl ack
Ġkak u
ĠBo ten
Am Ã©rika
ĠIb nu
ĠWar isan
Ġmengk u
ĠUN ESCO
ropol itan
ĠArs enal
D asawarsa
l ong
m us
Ġp ig
in k
Ġt ent
Ġt atu
Ġb ud
ĠD u
ĠN ik
ĠN ot
Ġc ampur
Ġf osil
ent i
op si
angsa ya
ĠKr esna
ell y
Ġpert anian
Ġduw Ã©ni
ly mp
use um
Ġkagung anipun
C A
K or
P endhidhikan
P adÃ©san
Ġ Ã©t
Ġs iti
in y
ĠS T
ĠM erah
ek ta
Ġc ontonÃ©
ĠR h
ĠG ot
ĠH av
Ġak si
Ġngl eb
Ġpangg unaan
ĠAg us
Ġtin amtu
lam asi
ĠAb b
Ġkem ampuan
Ġgl andhang
Ġdipunb abar
ĠMed ia
Ġmik ro
Ġpri bumi
T el
g antos
Ġs int
Ġk othak
Ġl eb
Ġt ers
ika r
ĠT H
ĠT ay
Ã¨n ing
uw u
ĠL ove
ĠR ach
os h
Ġkal du
ĠAm un
Ġkas Ã©hatan
angs ari
ĠIs mail
orm on
Kal urahan
Ġart inÃ©
ĠSet atsiyun
uwuh ing
Ġkatr es
vent us
Ġmric a
ĠdiwÃ¨n Ã¨hakÃ©
Ã£ o
s ad
Ġt ali
ĠI S
uw at
ol os
Ġj urnal
ĠL o
ĠL as
eg er
ĠG um
edh akÃ©
Ġper ingkat
ĠY en
ê¦ Ĵ
Ġmb utuhakÃ©
ĠPer usahaan
awan ing
ĠMar c
Ġ8 00
ĠKab inet
Ġsuw ara
Ġyus wanipun
ibar ipun
Ġngup aya
Ã¨wÃ© kÃ©
' ,
0 8
B an
ad ani
em ia
Ġg antos
uw ah
up u
Ġr ute
ep yakakÃ©
ĠN ag
and ani
ha i
ĠH y
ĠE li
Ġkab ar
Ġkat ulis
Ġwar ta
Ã©ng ing
Ġ6 8
Ġpar u
Ġkom une
ĠØ ¹
Ġmak utha
ĠMinangka bau
Ã¼ r
Ġsedh eng
angd ut
Ġpungg awa
P ul
R ob
r ama
Ä Ļ
Ġ ÙĦ
Ġk enc
ab uran
ĠA ji
ĠI X
ac i
ac o
im ulya
Ġ2 50
ĠC am
ud ing
ay o
ĠU skup
Ġh ist
ĠUn ivers
ath er
Ġpeng usaha
Ġpas ang
Ġgag ang
awu hi
9 8
N ov
c ago
l og
w ira
al ek
Ġl ib
Ġm uter
Ġt embÃ©
Ġb iaya
dh Ã©wÃ©
Ġng olah
ant ra
Ġg orÃ¨ng
hi m
ĠW el
Ġc u
ĠR ec
ent ingan
Ġper tandh
Ġpr al
ĠY udh
Ġmen y
Ġkas uny
Ġgedh Ã©nÃ©
Ġbal ik
Ġsek s
Ġpel abuhan
Ġpir ing
Ġmangg ihaken
Ġul asan
ĠKl ub
utur akÃ©
Ġastr onom
cel ona
ĠGor ontalo
0 7
B e
W on
h el
l ek
l aladan
Î »
Ø ¬
à ®
Ġ Ã©l
Ġp ahargyan
Ġt iwas
ĠK il
ur ug
ut r
Ġng ubung
ĠB ir
il akan
Ġj uga
up si
ĠL ap
ĠL empongan
ĠC ent
kÃ© wan
ay anÃ©
Ġkap r
ĠF M
esi h
ĠO c
ind u
Ġngr asa
ĠMal ik
Ġap el
Ġtr ep
Ġpel ukis
Ġen zim
Ġ195 4
ê§ Ī
ly wood
Ġmul ang
Ġur usan
O l
S ir
c on
Ã º
à ¦
Ġs angsaya
Ġt ari
ĠK and
Ġn embang
ul l
el s
ĠM b
ĠN orth
Ġdipun si
ĠE s
ĠE ur
Ġkaw in
Ġkaw angun
Ġdib awahi
Ġmain akÃ©
ĠSal atiga
Ġ8 6
Ġ8 8
Ġ9 6
Ġpert ahanan
Ġ193 9
Ġasil ing
Ġbant uan
ĠTek nologi
ĠKaka isaran
G M
I k
g et
p ur
u hipun
Ä ±
Ġk inten
Ġm ac
ĠP ustaka
dh ap
Ġng ono
Ġng aku
uk uran
eb ul
ĠN ama
ĠR akai
ĠG ad
Ġdipun kenal
ĠU mar
ic hi
est ik
Ġpam angk
Ġ195 3
Ġmenang aken
ĠKl ungkung
ĠPal embang
Ġdes ain
Ġseng aja
ĠSosi al
9 3
B anjur
D e
M angsa
T uwuhing
j ogan
p Ã©rangan
Ã ´
Î ½
Ġp or
Ġt umb
Ġn ar
Ġn imb
Ġn erang
ot lan
Ã¨r e
Ġh ad
ĠWal es
unt ung
ĠAs tr
Ġmil yar
200 2
199 9
ĠCol umb
lag ah
ĠBang li
Ġprodh uk
Ġgal aksi
hid rat
ipt akakÃ©
Ġnuk le
ĠGer akan
Ġdikembang akÃ©
Ġmrip at
I V
j il
Ġt eng
Ġn Ã©
Ġn andh
Ġng emu
um o
ĠM id
ĠM gr
Ġ" "
uk ir
asi at
ĠR af
ub is
Ġpr at
ĠO ri
ĠO gan
Ġal ternatif
Ġdit ayang
Ġsat us
oc a
emp uan
Ġv arian
ĠKal iw
re am
Ġsep atu
201 2
Ġgeg er
Ġdian akake
Ġgesang ipun
Ġding erteni
Ġstudi o
Ġditind akake
ĠSovy Ã¨t
) :
r ika
Ġ emb
Ġd al
Ġk Ã¨r
Ġk rom
Ġk Ã©nging
Ġt arik
ĠS op
Ġdi undang
ut u
em Ã¨n
Ġng ab
Ġj amb
im at
ĠW etan
ij en
Ġal esan
ind ing
ĠBar celona
engg ala
ni e
Ġhi as
Ġam ino
Ġkek uwatan
enter ian
uwi hi
ster dam
Ġsara pan
Ġkanc anÃ©
Ġstr at
Ġpuj angga
M y
S k
S es
s uku
Ġ å
Ġd asawarsa
al angan
at as
Ġm ardika
in n
Ġn ap
Ġdi iris
Ġng ajar
el iti
um lah
ag ian
ĠD istrik
im pun
ĠL aks
Ġsing le
ĠH indh
Ġman eka
Ġin spirasi
umb on
ĠSt asiun
ort el
Ġaj eg
Ġdr um
Ġlemb ut
Ġpanc en
Ġjej ibahan
ĠInstitut e
Ġmundh ut
Suk oharjo
Tul adha
Ġnyrit akakÃ©
Ġnyaw iji
e do
k anthi
v ille
z en
ang en
al ung
Ġl ukis
Ġm anc
ĠK eka
Ġb atang
ĠS emb
Ġn andur
us krip
Ġr ai
ud utan
ed y
ok ie
Ġper si
Ġas m
Ġjinis Ã©
Ġkl ompok
est ina
Ġngr as
ĠMal ah
Ġ194 1
iyos kup
Ġkol Ã¨ksi
Ġib une
Ar t
ĠÙ ģ
Ġmur ni
ĠKur dhi
Ġpertandh ingan
C l
b our
Ð ²
si um
Ġm Ã©
Ġt ema
Ġng ilang
ĠA sil
aj u
up i
ĠR ock
adi un
ĠH us
ec ah
Ġkab utuhan
uc et
ĠAl kitab
Ġdib agi
Ġpeng aruh
ĠZ o
Ar ab
Ġser atan
ĠPak ubuwana
Ġgag asan
ĠBel la
ĠMen ara
wak ilan
Ġim am
ĠKun ingan
A mb
K ag
N ew
S truktur
c ol
e ing
o us
t he
Ġ amp
Ġs un
ar do
ad y
Ġlan cip
ĠS orong
Ġn andhang
ĠA br
ĠM asarakat
ek o
ĠH art
Ġkab angsanÃ©
Ġh or
ĠAr m
Ġkaw icaksanan
Ġro bot
Ġning ali
Ġdib andhing
Ġbo x
Ġses ebutan
Ġ6 00
Ġap i
Ġap likasi
Ġdir esm
eran ia
iz i
oksi da
ĠMuhammad iyah
Ġadoh Ã©
ĠRoy al
Ġkup ing
Ġseth ithik
ĠAmun tai
A p
D on
G endÃ©ra
P T
R A
j ati
Ġ ï´
Ġd ek
at ul
ak Ã©n
Ġn aga
il asi
ĠI d
ĠT angg
Ġny am
Ġsaw eg
Ġpr insip
Ġmb ayar
ĠDh Ã©mokrat
Ġar iw
Ġar ti
ĠKar o
if f
Ġpas aran
Ġ193 7
uth u
âĢĻ âĢĻ
ĠJoh an
ĠEd ward
Ġmik ir
Ġpus aka
ĠSoc iety
Ġï´ ¿
K ebon
Ġp Ã©ri
ĠK int
Ġb ur
Ġn olak
Ġw edi
ul as
Ġng ombÃ©
ĠB ata
es c
ĠJ l
Ġr a
Ġr erenggan
sa urus
ob at
ĠAm erican
Ġh abitat
Ġol eh
Ġrum angsa
Ġmr ika
ĠKlat en
Ġfil suf
Ġment ega
Ġteb ihipun
mah era
Ġkin epyakakÃ©
P G
S us
p ustaka
t in
Ġs angan
Ġs acara
at omi
Ġl atihan
is l
ĠK eh
Ġb und
ĠS ag
ut ion
ĠB und
Ġg in
Ġg ajah
uk ani
Ġj end
ĠG amb
Ġper sis
ĠE uro
onal d
la via
andhi dhikan
à¤ ¾
ĠAnd rew
Ġaka sa
Si emens
ĠtÃ¨h nik
T ah
i en
k on
m ed
v asi
Ġd l
al un
Ġn a
Ġw ajan
ĠB ill
Ġg ubernur
ĠT emb
ĠW angunan
ĠG ames
Ġsak iter
ter s
Ġmen apa
Ã¨k nik
âĢ ľ
ĠCh in
Ġar ea
iya ya
Ġad ol
ĠMoh ammad
R es
S erat
T Ã©
g as
p aru
u do
Ï ģ
Ġ enth
Ġp oten
Ġm ungkasi
Ġn aw
ab le
ro c
Ġg iyaran
ap atan
Ġf l
Ã¨h an
op hy
âĢ ¢
Ġpang ert
Ġpang anggit
ĠGr am
Ġdil uncur
lo id
Ġpasi na
Ġmat ematika
Pro gram
ĠLan ka
Ġko ala
Ġwern ane
lem Ã¨n
Ġpot ongan
Bab ad
ï´ ¾
ĠJu ventus
ekut if
4 00
h ong
m l
Ä Ľ
Ð »
Ġ isa
Ġp il
Ġl aras
ĠS lamet
ul ai
ĠA ug
ĠI mp
ag on
ĠT emp
iy asa
atan dha
ĠR et
ĠR iz
Ġdh alang
id ad
ĠG il
anj ing
ĠO li
Ġdados aken
Ġpam r
Ġst abil
ĠKr ab
ĠAng gota
eran akÃ©
ambar aken
Ġsas uwÃ©nÃ©
ĠQ ue
Ġgl adh
ĠSek otlan
Ã¨ks ual
ĠPul itik
ĠIb rahim
rig ht
Ġcer ak
Ġceka p
Ġkemp alan
7 2
K ang
P end
R e
U ga
b us
l s
o or
y ong
Ġ Ã©p
ĠS uw
ĠP ir
ĠP ep
Ġw angi
em uk
el o
ĠM l
ĠM eng
iy ata
ih at
ĠL awas
ay aran
ĠH u
ĠU mb
tr y
ob e
Ġmen awi
Ġsad angunipun
Ġbo jo
Ã©wÃ© kÃ©
ĠSt eph
ĠAd ministr
ef f
tiv e
Ġbag ian
Ã©h at
ĠKh usus
Ġmandh ap
alif ikasi
ĠKol on
Ġperd agangan
à¥ į
Ġsemp et
ulau an
ĠComp any
Ġpamangk unÃ©
0 3
B intang
T a
g anipun
Ġ ×
ka li
Ġp ita
Ġp augeran
ak ang
is ari
ĠK ub
Ġn utrisi
ĠP iyambakÃ©
ĠT ulung
om otif
ĠG em
ĠG ab
Ġpr an
ĠO lymp
anjur e
ĠAn j
Ġngl uwihi
Ġro m
Ġpap rangan
ĠRom an
Ġtul adhanÃ©
199 8
Ġbub ar
Ġkeka lihipun
Ġbot ani
B any
B adan
P any
f an
Î ¹
Ġp Ã©r
ĠS anta
ut asi
Ġw elas
em ik
ĠB ell
et as
ĠD ub
ĠD ig
ĠN ug
Ġdh osÃ¨n
ĠF ort
aya an
Ġper juangan
ĠO k
ĠY ang
Ã¨l mu
Ġdit inggal
Ġ3 8
engk er
Ġnj agi
Ġ4 2
ust in
Ġ8 5
Ġkam angka
Ġngal ih
Ġsub ur
Ġkadh okteran
bo ard
bo hidrat
AN G
A z
B o
E d
K ed
K edung
O p
p adha
Ġs olo
Ġs egi
am adya
Ġb ok
Ġlan j
ĠS is
ĠS amar
ĠS usi
em is
dh og
Ġng ra
ĠM ov
ĠM erc
ĠM andar
ĠM adiun
Ġg raf
es si
ĠJ al
ĠR od
ĠR adio
Ġdis el
Ġsup er
Ġdiw en
Ġir ung
Ġpik iran
di e
Ġpungkas ane
ÙĬ ÙĨ
ining rat
ĠCor por
Ġditerbit akÃ©
onge Bob
Ġprom osi
ĠkÃ¨r em
D em
G l
I t
j ad
m ir
v in
Ġs anj
Ġp akan
Ġl aku
si un
am as
ĠS erang
Ġng endh
ant s
ĠInd ustri
emb ara
Ã©r y
ĠY erusalem
Ġaw rat
Ġpan ulisan
est ar
ĠKeb udayaan
az z
Ġpamb uka
ĠMaj al
Saw etara
urg er
Ã¸ r
Ġpingg iran
ĠPh ilip
Ġkamp anye
sc reen
Ġmudh a
ĠHal mahera
K ej
P and
S l
S at
v ard
Ġl al
aw al
as ri
ad aban
ĠS isi
it if
dh ak
ĠB A
us ari
ĠT ra
Ġ1 01
ĠD alem
ek Ã©
ot s
ĠV er
uwur ing
Ġv eget
Ġsag et
Ġro k
ĠWal andi
Ġpam ikiran
Ġsek itar
ĠKar aton
Ġmet er
Ġsir up
omat is
Ġkec ap
Ġputr ane
ĠChi cago
ĠRas ul
ĠHindh ia
S ul
h er
m iyos
p ol
Ġs Ã©j
Ġp iw
Ġk ud
Ġl in
ut t
ĠA cara
Ġg edung
ĠT ol
Ġr on
ud in
ĠH adi
ot ball
ati ve
uka ken
Ġkl awu
Ing gris
Ġdis ug
Ġdiw aca
ĠSa id
ĠWan ita
ĠLe ague
ĠolÃ¨h Ã©
Ġto uch
201 1
Ġpaw ongan
ĠPeng hargaan
Ġmengk o
ĠWin dows
Ã¼n chen
A ir
u at
Ġs Ã¨n
Ġs ilih
Ġt un
aw Ã¨n
as ura
ur eja
Ġb es
Ġn ag
Ġn ahan
Ġdi is
Ġng oko
ĠB apakÃ©
ĠT en
ĠT own
ĠN d
im as
ek nik
ĠR y
amb e
amb ridge
oc us
engg ar
Ġanggo tanÃ©
Ġkons er
Ġ192 8
ĠPas uruan
kad ang
ĠBad ung
erv asi
ĠMari e
Ġrup anÃ©
jas ama
Ġkatres nan
M i
O M
t Ã©
w w
Ġ iya
Ġk uwÃ©
Ġk iyat
al itas
at s
Ġm aksi
Ġt Ã¨ks
aw anipun
Ġb anjir
Ġb iyoskup
Ġw ortel
em eni
ap is
Ġj aba
ĠG reen
ĠH on
ĠF a
Ġny umbang
uj an
Ġal ih
engk u
ĠGr abag
Ġter m
Ġpul au
Ã©t ung
ĠKali b
ĠBo eing
ohan es
ide oc
Ġsimb ul
elit ian
Ġdom estik
Ġcem ilan
Ġolah raga
Ġturnam en
ĠAtl antik
ambo ja
Ġnemt okakÃ©
Ġsangan dhap
C TI
D in
R oti
e ong
o ut
s ok
Ġs c
Ġs isi
Ġp esisir
Ġl urus
am uka
ĠP ra
et s
ir ejo
ĠR Ã©
ij an
ĠH awai
adh etan
Ġas or
int is
ow an
Ġngl ayani
ebet aken
Ġsp Ã¨si
Ġkad ar
if at
Ġ195 1
198 3
Mas akan
Ġseb atan
Ġkritik us
ĠNi as
Ġhid rogen
Ġtrans fer
Ġdiasil akÃ©
ideoc all
b uk
k ons
m und
n asi
n ow
r Ã¨k
Ġ it
Ġ insi
Ġd w
am anipun
Ġt erbit
Ġb ing
ĠS ik
it ya
eng a
ĠB us
ĠM Ã¼nchen
ĠI reng
es o
ĠJ im
ĠJ alan
Ġj uni
go k
ĠN ara
ĠW ates
ĠF il
ĠU chi
ig rasi
Ġmen d
Ġngg olÃ¨k
ê¦ Ĺ
Ġdit utup
ist ika
omb ia
Ġ6 4
Ġdipunp aringaken
Ġkomp osisi
Ġdipunt indakaken
ĠPro sÃ¨s
ĠNov Ã¨l
Ġsang ang
Ġ192 6
fer ensi
Ġawal Ã©
ĠBos nia
ektor at
Ġrem aja
ĠMent eri
ĠKant or
Ġbakt Ã¨ri
- "
G edh
K o
T umbang
u gih
Ø °
Ù ī
Ġ ara
ang san
en ika
ak er
Ġt utup
Ġn ot
Ġdi h
ĠP os
ul ih
Ġng ak
ĠT our
ĠInd on
edh a
Ġny usun
Ġpr estasi
ĠE k
ĠAm sterdam
Ġab asa
endh em
Ġdir ektur
Ġkathah ipun
ĠWan asari
fr ed
ĠJuni or
Ġkons truksi
Ġ193 8
elas aken
ban ia
ĠAlex ander
Ġasi pat
abol isme
Ġtouch screen
9 4
B atu
D av
v el
y ata
Ġ ion
Ġ Ã¨wu
Ġp iano
Ġk usus
al and
Ġm ara
ik ut
Ġt ro
Ġka tiga
ĠK arib
Ġb ekas
ant ren
ĠB our
Ġg erbang
ĠJ a
ĠJ ambi
Ġr angkah
ĠN av
ĠL uar
ĠC up
Ġf en
Ġf os
Ġny ipta
ĠY am
umb uhan
Ġv ul
ĠCh ann
Ġ6 6
ĠWal t
unt y
Ġkol am
âĢĿ ,
Ġ193 6
Ġbap ake
Ġmul ih
Ġkaj ian
itur uh
ĠSrag en
inj el
Ġdha Ã©rah
ï¿¼ ï¿¼
raz il
asrah aken
Ġkoordin at
Ġpral ambang
D a
I m
L el
M o
n est
w adÃ©nÃ©
Ġ om
Ġs ekar
Ġp aj
Ġp ast
Ġk un
at ri
Ġl engen
ad at
it ia
Ġg unanÃ©
ĠT ern
Ġj en
sa y
and y
iw on
ĠH i
Ġf ermentasi
ter oid
Ġpr im
", "
Ã¨l an
ĠPr inc
Ġ3 7
Ġkangg e
eron t
rah am
ump ah
Ġml ampah
ĠKar awang
Ġkuw asa
Ġsin ambi
Ġpes en
ĠÃ©k an
Ġz ona
Ġpakar yanipun
S tr
W it
r ont
w antara
Ã© c
Ġs ec
ĠS uz
ĠP op
Ġng ob
ĠM enengah
es ta
ĠR umah
angka r
ot e
anj er
amp ak
tan ipun
ungg ul
od y
Ġsat elit
Ġwiwit anipun
Ġkon stelasi
Ġpem er
Ġgodhong Ã©
199 7
Ġpendh udhuk
Ġseka b
Ġuw ong
Ġint el
Ġakhir Ã©
ĠDir ektur
onj ong
Ġcandh akÃ©
B anyu
K u
S inet
m uwan
r in
w anÃ©
y am
z ah
un akÃ©
Ġm ujud
Ġka kang
Ġka arahaken
ĠK au
Ġn eng
Ġn Ã©g
ĠB angka
ek tif
ĠR evolusi
os s
anc aran
Ġal um
Ġkab upaten
ĠAn dh
Ġan alisis
omb e
Ġker tu
ĠSur in
Ġtan eman
Pr asasti
Ġ20 20
Ġ11 0
tiv itas
Ġop tik
ĠAnd re
Ġtur un
Ġjer onÃ©
Ġregi onal
ĠHamengk ubuwana
ĠSriw ijaya
antr Ã¨n
) ",
B ox
G ir
J er
P K
c er
c iri
d adi
d eka
h ol
j anjian
z abeth
Ġ Ã©s
Ġ ungu
Ġ usul
Ġp asa
Ġp ojok
am al
Ġt as
Ġb ir
ĠS ev
Ġdi atur
ĠP ed
eng er
Ġng ubengi
ĠM pu
us ahan
ĠG us
Ġdip isah
ib er
la i
Ġdis ar
Ġker ang
har jo
ny ur
Ġmat erial
dol f
Saw ijining
iyar aken
ĠÃ¨n Ã¨rgi
Ġmit os
27 146
ĠMic ros
ĠUp acara
Ġcem eng
Ġlemp ung
Ġmemb ran
W ewengkon
h ari
j Ã¨k
v es
Ġ iji
Ġ ikatan
Ġk unjara
Ġm Ã¨n
Ġt inggal
ad ewa
ĠS yah
ĠP endhidhikan
ĠP ituruh
ant in
Ġj ati
Ġr esi
ĠN GC
ĠH ij
ok rom
ĠF isika
Ġny erah
og rap
ĠO x
ina an
ĠPr aja
Ġ3 4
Ġkat ata
Ġad u
Ġkep ungkur
ĠIt ali
ampun ing
ĠCar ol
ĠKom ering
ĠPal estina
Ġsir ip
Ġbar Ã¨s
ĠMet ro
Ġaktiv is
ĠCi amis
Ġtangg el
Ġintern et
Ġlint as
pustaka an
0 2
K itab
c z
f ikasi
k ins
r onÃ©
v o
y im
Ġs Ã©d
Ġs iyap
ar gan
at ine
Ġm ap
er re
Ġt al
Ġng umpul
ika p
ĠI wak
ĠJ in
ĠJ ama
ĠL eg
Ġc uka
ĠR en
Ġu ji
ot ten
ari asi
Ġor ang
ĠO ff
ĠO saka
angk an
Ġngl ukis
uka r
Ġpem ilu
ĠPar tai
Ġmer eka
Ġ192 5
Ġfil osof
ye on
ĠBis kop
Ġmanaj emen
Ġariw arta
Sinet ron
D ina
S ri
w ati
ang er
Ġd epartemen
Ġm eksa
Ġt ind
Ġb enda
ut in
it un
ĠB ed
ĠA tas
ol ali
ĠD or
go t
Ġr Ã©k
ĠN ab
om et
adi an
Ã©r Ã©ng
ĠY ohanes
ist al
Ġpen onton
Ġkr upuk
uc al
ĠAl b
ĠAl l
ath an
Ġbal ap
orm asi
av orit
ĠMan ado
ĠMaj elis
Ġ192 9
Ġpal astra
Ġleng kap
Ġuw ab
ĠSc ott
Ġpandh ita
ĠPers atuan
ĠTe ater
acar ita
Sab en
ĠKomun itas
Ġspir itual
ĠHit ler
Ġnglair akÃ©
Ġwer uh
5 8
H amataliwa
Y Ã¨n
d ik
f jord
n oman
Ġ aut
Ġd en
Ġk lan
si c
Ġm acan
ak ia
Ġt at
Ġn ulung
ul uki
it im
ĠT ran
Ġc awang
id ah
id ung
Ġsak l
tr e
Ġdip er
ĠO ne
Ġkar am
Ġh ormon
uc u
ĠAl as
Ġpang arep
eh atan
unt ing
Ġbeb aya
Ġdipunp endhet
ĠCar ita
Ġpemb alap
ĠÙ Ĭ
Ġmang ertosi
ber ry
Ã©g ani
ebr ata
ĠMinangka bo
ĠSed aya
Ġpec ah
Ġprakt ik
ĠVir gin
) ".
K ad
P Ã©rangan
U M
l Ã©
l mu
u asa
Ġ ay
ar ti
Ġl olos
Ġm angkat
as tran
ĠM ol
ĠM obil
et ford
Ġg o
ĠT aj
Ġr ebus
ĠW I
ĠC ontonÃ©
kÃ© mon
Ġkal awan
isi ko
Ġf on
ĠAm ir
li ga
Ġmb ah
Ġmb eta
Ġkac ilakan
ĠAl bert
Ġdik ukuhakÃ©
ĠNg ab
aks o
ĠAb ad
ĠPang lima
Ġmer ek
erba ijan
Ġmric o
ĠmratÃ©l akakÃ©
Ġkekal ih
ĠKarib ia
7 3
E L
c ast
d ikan
r eg
r ed
t okoh
z h
Ä ħ
á º
Ġ ide
Ġs isan
ar ch
Ġk ukus
Ġm oral
Ġka ji
as Ã©
ĠK amboja
ĠS ent
Ġn utup
ĠP amb
it ori
ant ang
ĠB edh
Ġg anda
ir Ã©
ĠD ah
ĠC ant
os hi
Ġsak w
od adi
ĠPr atÃ©lan
Ġnj eblug
emp ol
pr Ã¨si
Ġtek s
Ġdipunp it
Ġ193 3
Ġkek ancan
ĠGar uda
ĠTul adhanÃ©
Ġpanggon anÃ©
set ingkat
ĠAss oci
lac ed
impun a
M ak
b ur
b ul
ar aga
Ġk iper
Ġl aboratorium
aw asan
ĠK in
aka tan
ro g
ĠA ut
ĠM una
Ġg erah
awa si
ĠC ast
ĠH or
Ġper guruan
ĠY usuf
Ġsad awanÃ©
Ġ5 2
Ġ5 3
min angka
Ġbapak ipun
Ġasl inipun
ĠHong aria
ĠKun o
Ġvokal is
ĠVII I
Ġsamb el
Ġmenj adi
Ġsedulur Ã©
ĠprofÃ¨si onal
8 00
G odhong
P ap
W oh
i ar
k ir
m is
s yah
y p
y uban
Ù Ģ
Ġs ol
ar ki
Ġl are
Ġm ay
ur angan
ĠS C
Ġn al
Ġw aja
ĠM end
ĠM ekah
ĠJ og
ĠD yah
ĠL ong
Ġpun iki
ĠC ak
kÃ© ologi
ij k
ĠPer sia
Ġker is
Ġ7 00
ĠSal aman
Ġdipuns utradarani
tif ikasi
Ġpul uh
rit ic
Ġpunj ering
ĠFr ance
ĠAp ollo
Ġpanc i
Ã¨st asi
Ġgug us
Ġmemp er
Ġwarn anÃ©
Ġvol ume
ĠLumb is
C iri
F C
K arajan
O n
b l
b ener
g on
s up
y awan
at ama
Ġb om
Ġn ari
Ġn alik
Ġdi f
ĠB ob
ĠA ra
ĠM ik
et on
ĠT ex
ol k
aj al
ĠD aya
ac aya
ĠL uwu
ĠC at
ĠC ip
ĠG olongan
Ġdipun adani
tr asi
ĠE c
Ġdit ambahi
ĠAl bania
Ġkaw itan
Ġro dha
Ġar us
ĠMal aka
Ġpam enang
ĠPur n
Ġdhuwur e
ĠMas s
ĠKor awa
Ġpert unjukan
ho u
opul asi
Ġup amanÃ©
201 8
ĠKa anan
Ġê¦ ı
ĠPurw adadi
ĠMer api
utradara i
ĠGeor gia
Ġpanalit en
Ġid ent
Ġger ak
ĠBon ang
Ġkatr angan
Ġturnam Ã¨n
kac amatan
ĠÃ©n ak
ĠBata via
7 00
A ku
H a
I b
K A
K ons
L ar
P U
P andh
T eluk
g es
r ep
z b
Ġd Ã¨ning
is ual
Ġn impuna
ut anan
ĠB ros
ĠB razil
ĠM U
ĠM it
ĠI ku
es el
ol eh
ep ake
ek tar
ĠL u
Ġak an
Ġpr eka
Ġdip ep
usi r
angk urat
la im
ov o
of ocus
ch er
Ġar ca
Ġpam eran
angkung i
Ġ9 9
aut ofocus
Ġdij enengakÃ©
ĠLe o
Ġpemb awa
Ġmed alaken
Ġsik lus
Ġsimb ah
way s
row n
Ġint eg
Ġok Ã¨hÃ©
Ġdhok tor
Ã¨ntr asi
Ġdon yaning
ĠChann el
B el
B oj
M at
R Ã©publik
d ip
j er
l eb
w angi
Ñ Ĥ
Ġs Ã¨k
ar itas
Ġd ewi
al d
at ha
Ġl engg
er u
am en
am ani
ĠK ac
ut awi
Ġw ith
Ġng id
ĠB ung
il ai
Ġj ar
Ġj aban
ĠW ib
ud ul
ĠInd ah
ĠInd ian
ed asar
ent o
Ġny obi
ĠU rip
anc ar
od ik
Ġv ert
Ġkul a
Ġ4 3
Ing kang
Ġsep isan
ine a
Ġpag er
ĠBoy olali
oksi dan
ĠSi emens
ĠJos eon
PratÃ©lan ing
Ġrep laced
ĠOt t
ĠNap ol
Ġnek ani
isl atif
Ġbund eran
d ir
i do
p iranti
t ra
w en
Ġ aja
Ã© f
Ġs urut
Ġk andha
Ġm aos
ak san
ĠK ai
ĠK upang
ĠS anj
ĠS taf
Ġdi adh
ĠP ear
el Ã©
Ġ" ...
uw ono
iy osipun
ĠG uy
and ingan
ub uran
ec ht
od on
Ġdit utupi
he im
umb ah
Ġpen siun
emp at
ja z
endh a
Ġ5 1
ĠBr ab
Ġ193 4
ĠKo es
Ġding ertÃ¨ni
acar aka
Ã§ ois
ĠWh ite
Ġov en
Kaj awi
Panjeneng anipun
ĠVictor ia
Ġngil angi
ĠUng aran
Ġkasuny atan
R ep
S il
b ok
n alika
p ort
t ang
Ġ engg
Ġs im
am ik
Ġb ed
Ġb ening
Ġb ank
Ġw anda
Ġw utuh
ĠB ulan
ĠT uban
Ġr eal
ĠR ap
ud ana
Ġ19 00
Ġf ase
Ġngg arap
ĠAm er
Ġh asil
ug er
Ġv on
pr es
ĠSan sek
Ġib uk
ĠKat olik
Ġmodh el
Ġur at
Ġform at
Ġtemp ur
ebl ugan
Ġleg enda
Ġ* /
Ġkaprig elan
5 2
5 7
H am
J ames
N agara
P asar
V D
Û Į
Ġ ex
ak tur
Ġb omb
ĠS tan
ul es
ĠB one
ĠA q
ĠM A
ĠM uda
ĠM ayor
Ġg injel
ĠD arat
Ġ2 20
eneng an
adh an
Ġdip uter
ijin e
Ġkab et
Ġkar bohidrat
Ġdik on
Ø§ Ø
ungk u
Ġdim ang
qu es
Ġ192 2
Ġot omatis
Ġsay ur
Ġpej ah
Ġkenth ang
ĠRot i
Ġngand ut
Ġkub uran
Ġreli gi
ĠNgo mbol
ĠSurin ame
0 4
m it
z el
Ġm ol
aw it
Ġb utuh
Ġb udidaya
or aken
us uk
ĠT oy
ĠT entara
ĠJ ag
ĠC le
ĠR on
Ġdh adha
ĠG od
ed es
ĠF ox
op sis
ĠAm bon
ê¦ Ĥ
ĠV OC
Ġpen yair
ĠDh arma
Ġkangg onÃ©
Ġkat utup
Ġkul onÃ©
Ġkaw ah
Ġro man
ĠCh ili
Ġtin entu
Ġsep uhipun
lam etan
;/ *
ĠMan uk
egi atan
ĠLe on
Ġduw eni
Ġind ustri
Ġmaka m
encana an
uz zo
ĠPert anian
ĠLum ajang
alif ah
ĠMart apura
Ġbek u
Ã¨b Ã¨k
ĠPot ter
ĠDerb y
Ġnump ak
D ir
G ro
P e
p ak
p em
p et
z er
Ġd angunipun
un anan
ak usuma
ĠK op
ĠK anjeng
Ġb idang
ĠS und
ĠP G
eng ue
eng kap
ĠI A
ag aran
Ġj anji
Ġr il
Ġr ed
ĠL ima
ĠW erna
ĠR io
int o
angk ok
ĠV en
osi stem
engk ung
ind ungan
agu yuban
Ġ193 5
Ġ192 4
pan ulisan
Ġang el
uwara an
oph er
ĠRib Ã©ry
ĠPramb anan
ĠCorpor ation
ĠBrab ant
6 8
B angsa
P artÃ©
S r
i hi
n ess
Ġ Ä
Ġs ama
ak onan
is on
ur st
ĠS K
Ġw ul
dh ani
il aku
ir sani
ĠJ aka
ap ang
ĠD I
Ġr ag
Ġc air
ĠR ong
ĠIn c
amp ahaken
ec tion
Ġmb etahaken
ĠDh ukuh
Ġpan anggalan
Ġ4 1
ĠIs k
Ġtum ut
usan anÃ©
if er
ĠMan ungsa
th ur
ĠSo ed
ĠX II
Ġpany erat
ĠPan asonic
za itun
199 6
Ġmat eri
Ġbl ok
Ġantrop ologis
ĠrÃ© aksi
ĠAz erbaijan
ĠBang lad
Ġinter aksi
ĠYo ung
ĠJemb rana
ĠAmp Ã¨l
G eor
I D
c ilik
i al
Ġk uth
Ġt ugu
ĠK ados
ĠK evin
ĠS uh
Ġn uw
Ġn iyat
Ġw aktu
ya p
Ġng uc
ĠM otor
ĠD KI
Ġr ad
sa i
ĠR um
ĠIn jil
emb ana
ĠF A
ej ahi
Ġsa untara
ug rahan
ard jo
ĠUn dhang
Ġdiw enehi
Ġlum ayan
Ġtum uwuh
Ġukuran e
Ġmet ode
ĠSh in
ĠAk u
ĠTel evisi
ĠIl ir
ĠKol ombia
Ġmom otan
Ist ilah
I C
J akarta
M uara
M useum
R aja
b aya
d ar
e u
g anti
m ulya
t ung
Ġ ical
ing en
Ġs yarat
Ġs Ã¨ksual
al in
at angani
Ġt abel
Ġb ul
Ġb ata
ad osi
ĠS erat
Ġn onton
dh o
ĠB BC
ĠA B
us akan
ap e
Ġj in
up akan
iy o
Ġr ujukan
ac ritic
ek h
ĠR uman
id er
ra in
ĠF re
ani c
ew u
Ġh ubungan
Ġh ektar
est ari
Ġumum Ã©
Ġir ing
Ġtim ur
Ġamb anipun
199 5
201 4
ĠMa ur
ĠPak is
Ġdipunr ilis
ĠSc i
Ġus ada
Ġteb ing
Ġsandh iwara
KI P
ski e
Ġkond isi
erba ik
Ġcor ak
ĠRec ord
ĠpÃ©r ak
5 1
6 00
9 1
A AC
G er
K es
L i
L agu
S y
T an
p le
y ana
Ġ æ
Ġp arah
Ġp awarta
en ne
Ġl at
Ġl Ã¨pÃ¨n
Ġt ub
Ġt idak
ĠK az
Ġn entang
Ġn andang
ĠP ahlawan
Ġw ae
do g
ĠB all
ĠA T
ĠA keh
ĠM em
ĠM aha
ag er
et o
et ron
ĠD udutan
Ġr ancangan
ĠR og
ĠG edhÃ©
Ġpr abu
Ġman faat
ig ran
Ġkon v
rah man
Ġdib utuhakÃ©
Ġngr esiki
Ġpar ag
land s
ĠPol it
idh ik
ĠtÃ© ater
199 4
Ġprof esor
bit aken
Ġel ekt
sc ar
ĠÃ©w adÃ©nÃ©
Ã¨nt Ã¨ng
Bab agan
Kap uloan
Ġram anipun
ĠMil iter
Ġdipuntepang i
Set atsiyun
RÃ© ferÃ¨nsi
ĠKrist us
ĠTH E
L umrahÃ©
M ic
M uhammad
T ar
T om
m inton
s ang
Ø £
ing katan
am ana
am ida
is anÃ©
Ġb on
ĠS on
Ġdi tandh
ut s
dh isi
ĠB end
ĠA j
ĠJ ong
ap isi
Ġta yang
ep t
ĠN gr
ĠL yon
ĠL ife
Ġdh arat
ij akan
Ġkap asrahaken
ĠE ks
Ġdig eb
Ġin str
st on
la f
Ġh ubung
Ġmb ukt
ug rah
imb ul
Ġsw iwi
Ġsw asana
ĠPol andia
Ġ13 0
Ġkons Ã¨ntrasi
lor onÃ©
Ġpemb uluh
Ġ192 3
Ġ192 7
ĠKam entrian
Ġmang a
dong a
Ġinf eksi
ĠPram uka
ĠCi anjur
ĠAsi an
Ġdiam eter
Ġwah ana
Ġ"... ")
A lex
O S
h in
m ata
Ġ est
Ġ und
Ġ zaitun
Ġl ok
Ġl amp
si on
Ġm un
Ġm ust
Ġt am
Ġt apa
ur ai
ur inÃ©
ĠS L
Ġdi uc
ant e
ĠM angg
ĠM Ã©t
Ġg ulu
ĠJ atin
ĠD C
ĠC enta
ĠIn tan
ĠH ay
op o
op or
umb ung
ĠKal ih
Ġdib ungkus
yan mar
Ġtet embangan
ĠSum edang
ĠSem ar
An ak
Ġkes empatan
Ġ193 2
ÙĲ Ùĳ
aÃ© san
Ġwoh Ã©
ĠHar vard
ĠSad Ã¨rÃ¨ngipun
Ġil Ã¨n
ĠKem enterian
Ġinf Ã¨ksi
ĠTha i
ĠKart asura
ĠStr etford
evi ew
ĠDas amuka
ĠHab ib
ĠnÃ©g atif
" -
A V
A wal
F ran
P unika
a o
r ek
t ol
Ã ħ
al s
si an
Ġt embaga
Ġb an
ĠB omb
et ti
hi c
go v
Ġr ay
ĠC y
ĠR awas
Ġu jar
ĠIn tern
ok erto
Ġny lamet
ati v
ama i
Ġal at
li bat
Ġdit ek
Ġkar tun
ĠV ene
one y
man n
Ġkr e
Ġdib entuk
ĠMar oko
Ġber p
war e
ubl ikasi
Ġlel ampahan
abr ik
erm o
ker ta
199 3
ĠBer g
Ġditem t
omat ik
Ġot onomi
ĠKer ja
Ġcer kak
Ġsil at
ĠFlor es
Ġpalakr ami
Ġdhok umÃ¨n
Ġpiy ul
Sap Ã©rangan
ĠFo otball
Ġuj ian
Ġkrom osom
Ġenth eng
ĠAssoci ation
/ /
D ewi
r ence
s w
v ania
à ½
Ġ esih
Ġs lamet
Ġs ikap
Ġd awane
Ġl alu
Ġl ilin
Ġm Ã©l
Ġm anten
in do
Ġt awar
aw iyatan
ĠK w
Ġb angunan
dh ik
Ġng ripta
et e
Ġg or
Ġg emb
Ġg aman
Ġg ancaran
ĠJ ami
ĠJ oe
Ġj ambu
ĠD ic
ĠN azi
Ġc ah
Ġu c
amb Ã©
ĠG ood
Ġ19 18
Ġsak s
Ġsaw ijing
ti g
Ġas et
Ġsa ingan
angk it
Ġmb angun
Ġpen ampilan
ow i
Ġpang lip
Ġngr ancang
Ġdiw atesi
pr ess
Ġ9 00
Ġpat utan
Ġpat emon
Ãª ng
Ã©d ia
ĠTr engg
Ġjag at
erc ayan
uara an
Ġdipunc ekak
Ġep isode
Ġsapanunggal anÃ©
Ġkum inis
ĠJac ob
ĠMicros oft
7 1
K i
K an
P ulau
b el
n ah
Ġ era
Ġ Ã©m
ar us
Ġd asa
is kop
Ġb us
ĠS acara
Ġn ip
Ġw ont
do lan
ĠB ola
ĠB ach
ĠM ang
us aken
et ah
Ġg andheng
uw ung
Ġr et
Ġr isiko
ĠN il
Ġkal k
Ġmin im
Ġf akultas
ĠF at
Ġny iyap
op ol
ĠPr esiden
Ġdit ampil
Ġ3 9
Ġmb ok
Ġmb ela
Ġsad erengipun
Ġdik ira
Ġdik uwasani
angs u
Ġpam aburan
Ġen Ã¨m
erna an
Ġkons umsi
Ġmod Ã¨l
Film ografi
ĠPh il
ĠPet rus
Ġpac aran
Ġngur usi
Ġngur mati
ĠHo use
Ġsr eg
ĠPag unungan
Dav id
: ...
A wit
B est
T e
T ir
b ali
r ung
s um
y ane
Ġ uni
Ġs uara
Ġd ew
Ġk unci
al uk
al akÃ©
Ġl ong
Ġl ain
as y
Ġdi aj
Ġdi umum
Ġw angsa
ĠB ig
ĠM uh
ĠT ugu
ĠJ ung
Ġr Ã©p
ih e
ĠL es
ĠW ulan
ĠC orn
ĠC ambridge
Ġpr atandha
ug is
ĠKal ij
Ġpang uripan
Ġtek nologi
ĠMan awa
Ġob yek
th Ã¨ng
Ġcar abasa
Ġpol ong
our c
à¤ °
Ġlemb ab
eor ang
ĠBoj ong
ĠBoj onegoro
ĠKe amanan
ĠBe ijing
ĠPand an
Ġgunggung Ã©
Ġungg ulan
ĠBet awi
ĠMangkun agara
ingu istik
ĠChin ese
K e
M H
M er
S ch
b ang
f ar
Ġl as
ah bis
Ġt aj
ĠP ati
ĠP ucuk
ĠM ori
Ġg urit
ĠT as
ĠN askah
ĠC ut
Ġc ak
Ġc airan
Ġc ipta
ĠR CTI
os p
Ġdh Ã¨wÃ©kÃ©
id eo
angka p
ĠH erman
Ġmin i
Ġkap adhetan
og h
ic ode
Ġin stitusi
Ġag en
emen an
unj ungan
ĠÙ ĥ
ĠKep ulauan
ĠKu il
sc he
Ġjaw ara
Car ita
Ġakhir e
ĠgÃ© ografis
Ġngam ot
Sek olah
Ġdipunter bitaken
sab en
Ġdipep aki
ĠBanglad esh
7 4
G ol
I M
J os
K R
L A
P anganan
R ej
l uwih
p am
r egi
Ġ qu
Ġs isik
Ġp ant
Ġp anjur
Ġm eranakÃ©
Ġt ol
ĠS eg
ĠS eka
ĠB il
ĠB ond
Ġg Ã¨n
ĠT au
ĠT latah
ĠJ KT
iy antun
Ġr iyaya
ep etan
ek erta
os ta
ij Ã¨n
ĠH end
Ġkap ur
ĠF ern
Ġny ambung
uj uki
ĠE ug
st il
Ġkr istal
Ġtan saya
apa it
Ø§ ÙĨ
Ġamb egan
rip ik
ĠLe iden
Ã¥ g
Ġpin uju
Ġkej awi
Ġnem oni
Ab dul
Man uk
ĠAnt oni
ĠÂ £
ĠSim on
enj ang
Ġanggit anÃ©
Ġdileb okake
Tamb ak
Ġsand wich
jal anan
epend en
ĠForm ula
ĠEli zabeth
ĠAbr uzzo
ĠIsk andar
R iwayat
S ed
S ub
S aking
T ur
m isi
y t
y uh
Ġ umb
ka ca
Ġl ag
in ata
ak l
ak anÃ©
ĠP amarÃ©ntahan
ant asi
ĠB eg
ĠM aka
ĠI C
Ġg izi
ir man
ac t
ĠN et
ĠW ekdal
Ġdh awuh
ĠH ok
ia i
tr um
Âł Ċ
int u
int ik
Ġdis edhiyakake
Ġag awÃ©
Ġkidul Ã©
ĠKl iwon
ĠSy mb
Ġdipunr emeni
Ġ190 8
Ġnyebut akÃ©
Ġsadh uwuring
Ġmus uh
Ġperd ana
Ġped agang
ĠOp erasi
Ġkew argan
Ġpah am
Ġngleb okakÃ©
ĠDub ai
ĠHawai i
jaz air
: //
B as
S A
T S
T ran
g ame
k ep
l ow
s am
s aj
Ë Ĳ
Ġs ig
at om
en burg
Ġl abel
am Ã¨n
ah ir
Ġdi iringi
ĠP it
ĠP uj
ĠP ej
ĠP ost
ul ana
ab anÃ©
ĠA pa
Ġg end
ir at
Ã¨n a
ĠJ i
up e
ĠD ara
ĠD ec
eb el
om inasi
im e
ĠL ab
ĠL emb
Ġc abai
ĠR ej
ĠG all
Ġman unggal
Ġdig un
Ã©w ahan
ug erah
Ġkul iner
ĠMar ga
ki e
Ġad egan
ĠZ eus
Ġdic el
emen angan
ĠKr eteg
Ġkur sus
Ġdipuns ukani
kal ebu
ach us
ĠSer dang
ĠKon f
Ġind uk
Ġpak urmatan
Ġilm u
ĠUmum e
Ġram Ã©
abor asi
anjut Ã©
Ġkend araan
eku ensi
Ġhor or
ĠTex as
Ġkabet ahan
ĠSymb ian
H e
L ou
S e
T C
T lag
b ud
g ara
z an
un ner
Ġk isah
Ġm ert
Ġm Ã¨ngeti
ĠS ina
ĠS av
ĠS inta
ĠP un
Ġng undang
um at
ĠM aya
ĠM esin
ĠI sa
ĠT uhan
ĠJ r
ĠD anau
eb ak
ĠL aras
ĠC it
Ġc agak
ĠR oh
ĠR ef
iw angi
ew ah
ew is
usi pun
Ġdit uku
Ġsam enika
Ġkon tr
Ġpan litian
ath uk
ev a
Ġ9 8
enc ia
ric a
Ġmar Ã©ntah
ĠSak it
ĠAir ways
Ġdipung ambaraken
ĠMer deka
Ġkompl Ã¨ks
yl vania
Ġpeg awÃ©
ĠGol den
Ġtent rem
B ul
R om
S unan
k anca
m g
Ġp h
al isme
er apa
Ã¨ tan
ĠK anggÃ©
Ġb ib
Ġb andha
ad il
ĠS ind
Ġn epang
Ġn eur
ĠP D
Ġw a
it aris
Ġj angka
Ġj uri
Ġr ingk
ĠR ac
os er
id s
ĠG et
ay uda
ĠH amb
ĠH aji
isi da
ob el
ic ip
ĠY Ã©s
ĠAm angkurat
Ã©w angi
art h
man awa
akar yan
ĠAn ne
Ġpangg Ã©nan
Ã¨t nan
eges Ã©
unt ungan
ĠMas akan
ĠSan Ã¨sipun
Ġkes Ã©hatan
Ġ193 1
ĠMaj apait
Ġpaw on
uwa osi
197 4
ĠKe uangan
Ġpern ahÃ©
ĠNom er
Ġco okie
ĠHas yim
Ġsud ut
Ġpasina on
Ġrom antis
P ilihan
y m
y asan
ang Ã©
er im
Ġka pundhut
as anipun
Ġn unj
ul p
us sia
ĠT it
es n
ĠJ un
Ġc l
ĠR is
ĠR oc
gi o
ub arang
Ġny edh
Ġper men
Ġkab awah
Ġh om
Ġpen emu
uka t
Ġdib anding
ĠMar gar
Ġ5 8
Ġker jasama
orm atan
Ġ9 5
Ġdim ulai
199 0
Ġ192 1
Ġmodh Ã©l
ĠHan oi
Man awi
zo a
ĠtÃ¨k nik
Ġbant er
Ġwin atesan
ĠKadh angkala
ajib an
ĠPram ila
Ġsand iwara
ĠFri ed
ĠCep u
ĠPrab alingga
Ġpo in
ĠAnth rop
ĠBrit ish
Ġminor itas
ĠColumb ia
A li
C acah
T laga
Å Ł
Ġp andhidhikan
Ġm awar
is c
as tan
ĠK end
Ġb encana
Ġn ulak
ĠP lankton
Ġng eb
ĠB es
ĠA qu
Ġg ong
Ġg rav
ĠT eg
Ã¨n d
Ġj arang
ih Ã©
ĠN ick
ek ti
ĠL ing
ĠC im
angan ipun
and uk
Ġkal Ã¨ndher
ati c
Ġpr ed
ke y
Ġmb utuhake
Ġsat riya
umb ar
ĠDh Ã©wÃ©kÃ©
Ġkon stitusi
oc apan
Ġv al
ĠAn ton
Ġkl awan
ont al
Ã¨s tan
Ġar upa
Ġkep anggih
war ni
Ġ10 5
ĠKab udayan
ĠPar iwisata
Ġadh aptasi
Ġmer upakan
Ġpamb iyantu
Ġpamb ront
iz za
awas Ã©
ĠKas unanan
enging i
ê¦¶ ê¦ģ
Ġkawigat Ã¨n
Ġgamb aran
Ġceka kan
Ġketh Ã¨k
Ġpi ala
Ġkalor onÃ©
D ur
G u
I A
O b
T ri
U r
g unung
k ot
n iv
Ä ĵ
Ġp est
Ġp anyar
Ġk risis
Ġl eres
si si
aw angsa
ĠK asi
ĠK uran
ĠS emen
Ġn an
it isi
ya an
Ġng e
el on
ĠB utuh
us en
ag h
et ika
et awis
Ġg andha
ir ata
ĠL ump
ĠC eko
ahan e
Ġkap utusan
ip ur
ig an
angk on
gr Ã¨s
ĠKal iny
Ġpad inan
ĠUn icode
oy ono
Ġtum eka
ĠKr ayan
In ternational
Ġalbum Ã©
ĠPan araga
Ġmul anÃ©
Ġdhi am
der land
Ġwiyar ipun
arib awa
Ġdel engen
oci al
Ġtulis anÃ©
Ġpek erja
Ġdigambar akÃ©
ĠHat ta
Ġngat asi
ĠTulung agung
ĠNapol eon
' )
K en
K aka
M art
c ong
h al
h um
s umber
s hire
w eg
Ã© ga
Ġs eh
Ġs umbangan
Ġd angdut
Ġp ados
Ġl is
Ġl uw
Ġb akul
ĠS alib
ut ah
it ing
eng gan
ab e
es liga
Ġr Ã©l
ĠL ev
ĠW ay
ĠR ub
uh un
ĠH ow
anj ana
Ġny ari
ĠE p
Ã©w i
ĠDh uwur
ken ario
ĠKal ig
amel anipun
Ġsag ung
ĠZ ain
Ġpem eran
Ġlel ungan
Ġkodh ok
Ġpit ados
199 2
201 7
Ġmon okrom
ĠBel itung
acap at
Ġkos m
Ġmad osi
Ġmanaj er
Ġrek or
Ġhot Ã¨l
ĠSqu are
ĠSteph en
ĠRuman ia
J ag
T uwuhan
W ektu
n anging
v ing
ã ģ
Ã© kat
Ġd ep
Ġd ony
Ġd aratan
at anÃ©
si li
Ã¨ ka
Ġt awon
Ġt amba
Ġt awaran
Ġb udh
ĠS E
or ter
ir it
uk ses
om er
ĠL embah
ĠR ow
ĠR ey
ed ral
ed onia
ĠH ari
Ġsak d
ĠF itri
eneng ake
Ġsal ira
op oda
Ġper angkat
andh ar
ĠE ast
ĠAm pel
ug ur
ain e
man faat
ĠPer u
ĠAl jazair
Ġpang adeg
Ġpang obatan
Ġ7 8
aksi n
ort mund
Ã©p ok
Ġsuw e
Ġmang ertos
asin ipun
Ãī ropah
Ġkasus astran
Ġner asaken
ĠKul awarga
Ġcu aca
ĠMajal engka
Ġpanglip ur
C inta
W ayang
d awa
k or
m il
m usi
Ġ á
Ġl ing
Ġt ong
ĠK ast
Ġb angun
ĠS aks
ĠP anj
Ġw ali
ĠB ocah
ĠA C
ĠA M
ĠM ike
ĠT otal
ol u
ĠD uta
iy anipun
Ġr ub
ĠL oro
Ġc end
ud isi
Ġ19 10
ari at
ĠF uj
Ġdig arap
ug emi
Ġkr itis
uc ut
Ġar anÃ©
Ġter akhir
ĠKr ajan
Ġkel amin
adhi si
Ġpert alan
Ġpasi en
ĠBal kan
by g
Ġdipunb etahaken
Ind onesia
Ġwedh i
ĠPin ang
ĠNig eria
ĠHav re
ĠSansek erta
I r
J ati
L an
f ah
g el
t t
u it
x i
y ani
ka mah
Ã© e
Ġs Ã©n
Ġd ateng
Ġl ang
Ġm art
Ġm ie
ak m
ak ng
ak ti
Ġt uan
Ġt ambang
is ahan
aw inangun
Ġn elasaken
ut aken
eng kar
ĠA D
ĠM yanmar
ĠI an
aj inan
Ġc at
os ter
ĠG edung
Ġdipun agem
Ġsak itar
ub umi
adh angan
int un
ĠPr emi
oka r
ern ak
Ġaw angun
of il
Ġdik ubur
Ġdis ebar
Ġker sa
Ġ7 2
Ġ7 6
Ġsp ons
ĠZ e
atur akÃ©
Ġngisor Ã©
Ġnduw e
Ġpany engkuyung
201 3
Ġpin anggih
Ġkarakter istik
ĠÃ¨n thÃ¨ng
Ġsaya p
ĠSet u
ĠJaya pura
ĠStr eet
Ġwat ak
Ġnamb ahi
Ġngundh uh
ĠKum inis
Ġakadem is
Ġperson il
ĠKint amani
Ġterm inal
Ġvul kan
B ur
K ac
f o
k omp
s hi
s ep
w atu
ka mp
Ã© ka
Ġk ob
Ġm eneng
Ġt aks
Ġt abung
ĠK unt
Ġb arat
Ġw ond
ul ing
Ġng engingi
ĠA in
ĠT od
ĠT awang
ap ut
ĠD esa
Ġr en
om on
ĠL yn
angg rahan
ok s
ip an
tr al
Âł Âł
Ġdip erl
ĠY os
Ġsa ins
Ġaw u
ĠKar im
Ġkep riy
Ġen ak
Ġlem on
Ã©m okrasi
Ġpany ebaran
ĠPem uda
Ġmir ip
Ġdin asti
Ġhak im
Ġbel ahan
Ġnil araken
ĠDo ug
ĠSumb awa
Ġger akan
ĠUk uran
Ġpis ta
Ġungg as
ĠProd uc
Ã¨dh isi
ĠmÃ©t odhe
Ã©nc ang
ĠYudh oyono
ĠGad jah
ÙĢ ÙĢ
gov ina
B eksan
D en
K ut
S umb
S ega
W at
d Ã©wa
i or
j ing
o an
p ert
z on
Ï Ħ
Ñ ĥ
Ġd omba
Ġd engue
un ikasi
Ġing on
on im
ik ulum
as ing
Ġb upati
Ġb akso
Ġdi il
ĠP anji
Ġng angsu
ĠM ich
es sa
Ġj abatan
ĠD ortmund
eb asan
ĠN ight
ĠL em
ĠW ed
ĠC onto
ĠR ena
ĠG ebang
Ã¨h anÃ©
Ġny eb
Ġny ampur
ama ian
Ġdip aringi
Ġh utan
Ġsat engah
ist is
ind ungi
ĠAr men
Ġpan ah
ĠUn ion
Ġ6 2
ĠBar b
Ġat mos
ĠSal im
una akÃ©
Ġter p
Ġun j
Ġtim un
ĠAd i
ĠAs y
ĠJuli us
inc in
201 5
Ġdipunb ikak
ĠSam uel
Ġsip atÃ©
Ġkan ugrahan
asif at
ĠMed it
din and
Ã¨ksi ko
ÙĪ ÙĨ
ĠCo unty
ĠWis ata
ĠMak mur
ĠJend ral
pl ay
ĠKomp as
Ġras eksa
Ġditerbit ake
ivers al
Ġris et
irah anÃ©
Ġmes ti
ĠFin landia
Ġgendh ing
ĠEmp at
Ġdiset Ã¨l
utr adh
ĠSisi lia
ĠPra unÃ©
Ġinsi nyur
Ġsec ara
ĠOx ford
Ġtind akan
Ġnuw uhakÃ©
Ġpanjur ung
H er
J end
K edh
L O
c y
l iyane
t um
ar on
Ġl awuh
Ġm engg
ah tera
Ġt u
Ġt abuh
is ha
ĠK ak
ĠS ha
Ġn en
Ġn esu
ut ing
ĠP ec
Ġw ani
em as
ul atan
eng Ã©
Ġng ay
ĠM ing
ĠM ata
ĠT ingkat
ap el
ĠD ados
ĠN agari
ĠC la
ĠC enter
Ġc um
Ġc eth
ĠG at
ĠG reat
ed ik
ed dy
isi n
isi an
tan agara
Ġper awatan
Ġdip roduksi
ĠY as
Ġsa at
ê¦ ¿
usi f
oh on
Ġkar yawan
Ġh an
ĠV el
Ġpen yu
osi nt
ern akan
oc hi
Ġan atomi
Ġngr eksa
ump uk
Ġgr atis
Ġbi ografi
gal uh
Kar anganyar
lor on
Ab ad
ser v
Ġkor upsi
Ġpern ikahan
ĠFer r
Ã¨ntr Ã¨hakÃ©
Ġkawonten an
ĠNep al
ĠUchi da
B N
P emb
T i
d ic
h us
n ada
y g
Ġk im
at acara
Ġb un
Ġn abi
ĠP ilihan
Ġw ic
Ġng ap
il id
et ts
Ġg un
ĠT j
ĠT erb
ĠT iga
ĠT oba
ĠJ alur
Ġr ama
Ã©n om
ĠC ro
ĠC las
angka tan
ĠH and
Ġ19 19
anj uk
ari galuh
ĠdÃ©sa in
ĠY un
Ġmb al
Ġsat emah
angsa an
ĠAl fred
Ġv isual
ĠAn oman
Ġab di
ert on
Ġat let
pr aga
ĠBat am
ĠÃī wadÃ©nÃ©
Ġmed ali
Ġmangk Ã©nÃ©
198 9
Ġgegay uhan
ĠKel ompok
ĠRe za
Pam Ã©rangan
enj ata
ĠRah wana
Ġed isi
gos lavia
Wil liam
Ġnggantos aken
alung un
Ġbing ung
Ġnip is
Ġnyiyap ake
K ampung
N e
P D
b ro
c at
e sia
l egi
n et
r aw
v is
Ã ĺ
Ġs or
Ġp isah
am ad
aw et
ĠS A
ĠS ig
ĠP ek
em uwah
ab aran
Ġng in
ĠB akar
ĠB ulu
il ar
ĠA ff
ĠM TV
ĠI k
Ġj angan
Ġj ahe
Ġr aya
ĠL at
ĠW atu
ĠR ikala
ĠG P
ĠG ard
ĠG ading
ij n
ok wari
Ġ19 12
Ġ19 11
ĠU zb
Ġdip it
ĠPr astawa
li an
Ġ3 50
Ġkab Ã©h
Ġkr asa
ĠAn ti
Ġdum ados
eh an
Ġkl ip
Ġdis usun
Ġar kÃ©ologi
und uh
Ġad a
Ġad hi
ĠKulon praga
Ġpam ekaran
ingg ir
Ġ9 3
erat or
Ġkalih an
Ġpanjeneng an
Ġpeny el
iti on
adÃ© kakÃ©
Ġsed asa
198 2
Am erican
Pro f
yak it
Ġditer usakÃ©
Ak Ã¨h
Ġlar utan
ĠTor aja
Ġcel ak
ST N
Ġremb ulan
Ġlun ak
á¹£ á¹Ń
Ġelektron ik
ĠJohan nes
ĠBund esliga
ĠÃ©p isode
Ġkaram Ã©an
K uwÃ©
T emp
h ad
r ac
u ai
u yu
v ideocall
w il
w ork
Ġ ]
Ġ asifat
ang o
Ġp Ã¨ng
Ġk andhang
al embana
Ġl iyan
Ġm ud
Ġm ampu
er en
ik s
Ġt l
Ġb it
Ġb end
ut anipun
ul uran
et us
Ġg aw
Ġg apura
ĠJ ane
uw e
ĠW ina
Ġc on
iw ar
ew angi
tan e
ĠU gi
Ġin stan
Ġkab inÃ¨t
ĠV ersi
Ġwiwit ane
Ġkr Ã©ta
Ġsam ubarang
ĠAn na
Ġsad awaning
re ad
kar yanipun
ump eni
und uran
Ġpeng unjung
Ġter d
Ġdipunt ambah
ĠMas Ã¨hi
Ġtul adhanipun
az a
Ġmig rasi
201 6
Ġkont ribusi
Ġmaj emuk
ukup i
Ġbub ur
Ġform ula
Ġkapanggih aken
ĠSub ang
Pad ang
ĠGel derland
Ġnyar iyosaken
ĠWah id
ĠsÃ©ri al
hel m
iskop an
Ġdicel up
5 4
C om
K J
M oh
S im
S endhang
T okoh
T anah
n ov
ka g
Ġk ubah
al en
on er
as al
Ġb Ã¨bÃ¨k
ĠS imp
Ġdi sil
Ġw arigaluh
aka k
aka ta
ĠB P
ĠA N
ĠM Ã¨ksiko
ĠT ag
ĠT iti
ĠJ ason
Ġj azz
iy Ã¨n
ĠL amp
ĠC and
ĠR yan
amb il
angg ap
ĠF ac
andh egani
Ġdip ar
ĠE do
ĠE st
Ã¨r Ã¨t
Ġ3 60
Ġh eadphone
Ġsat u
ĠAn tar
Ġngl indhungi
Ġpara sit
ĠMar sh
kar yanÃ©
ungka p
Ġ9 2
emen ang
Ġpas agi
ĠNg awen
Ġpul uhan
all y
uy ut
Ġku alifikasi
ĠMad inah
ĠMus a
Ġpep ak
ebr ang
awis aken
ĠSl ov
Ġaka dh
Ġsil inder
ĠMangk ubumi
ĠÃ© volusi
Ġpent as
Ġpeg atan
ĠSus uh
ĠMod ern
Ġnged egakÃ©
Ġrel atif
ĠStev en
ĠKy oto
Sin opsis
isip asi
ĠPraj anjian
ĠBers atu
ĠTay lor
ĠsÃ©j Ã©
eront akan
akm uran
9 00
E s
N gr
b le
o ga
r il
an akÃ©
Ã© st
Ġs taf
Ġk riya
Ġm adya
on dok
Ã¨ sia
Ġt rah
Ġka ten
Ġka mb
as akÃ©
Ġb il
Ġb uta
Ġn ark
Ġn liti
ĠP ari
ĠP ast
ĠP ada
it ive
aka h
dh Ã¨wÃ¨kÃ©
Ġng ukuhakÃ©
ant y
ir ta
ap p
ĠD ev
ĠW ang
Ġc ed
upat Ã©n
Ġ19 01
Ġny us
og ram
ati us
na oni
Ã¨k an
Ã©w ahi
Ġkas empatan
Ġant Ã¨na
osi r
Ġkl anjer
Ġ5 4
Ġml arat
fi ah
Ġ10 6
ĠAs am
Ġpem ilihan
ĠSep ur
Ġpany er
Ġmir ing
sis ten
Ġkek u
Ġpet ani
ĠLa os
ĠOl d
itu do
Ang gota
ĠDin as
Ġek onomi
Ġboj one
Is lam
orf ologi
agama an
Ġdist ribusi
Ġast ana
uss alam
ĠTib et
Ġdiis eni
ĠMass achus
Lou is
Ġnyari osaken
" (
5 9
8 2
B u
C H
K ota
e ak
p es
s ol
Ġd uta
Ġd ene
Ġp id
Ġk obong
si pat
Ġm angs
er ita
am ah
ĠK ent
ad ri
ĠS H
Ġw as
Ġw atesan
pun an
Ġng ambah
ĠB ec
ĠI T
ag akakÃ©
Ġg andhÃ¨ng
ĠT ris
ĠT omat
es ing
ĠJ ar
ĠD eli
hi opia
eb ing
ong o
ĠR egi
angg onÃ©
ia o
Ġkap ercayan
Ġman uskrip
Ġal mond
Ġsa engga
st al
ov an
uc ung
Ġpan em
eh ing
Ã¨s tival
ers ey
Ġket imbang
Ġdil iwati
Ġdil antik
ubl in
ĠSa Ã©ngga
Ġamb ruk
unj ul
unj ungi
ex ico
ĠSh ow
uth er
ĠCar l
rom agn
ĠMP R
Ġanti oksidan
ĠHol lywood
Ġim igran
ĠDip onegoro
emat ografi
Ġngrampung aken
Ġnya ut
ender ung
ĠUl ama
mul yo
Ġefek tif
Char les
ĠUnivers e
ĠSusi lo
B uk
F ungsi
H eadphone
N S
Q u
R ujukan
T andha
k lamasi
y any
Î ¼
Ï ĥ
Ġs ib
Ġp ayu
Ġk imi
al iti
Ġing akng
Ġl aga
si us
Ġm e
Ġm ekar
am ang
on ipun
Ġt ri
Ġt ebu
Ġka anggit
as aran
ur rahman
Ġb aj
Ġb onÃ©
ĠS ky
Ġn angani
ĠP iring
Ġw Ã©tanÃ©
Ġng ukur
ro y
ĠM anda
ĠJ ej
uw angan
Ġj a
Ġj awi
eb ec
ĠW ind
ĠC itra
ĠC STN
ĠG h
ud ukan
ent ing
edh Ã¨ni
rov inc
ĠU lah
Ġdig ulung
li f
Ġaw arna
akar ida
ĠAn im
ĠAn war
Ġdib uka
Ġ5 7
Ġdis utradarai
omb o
Ġsep indhah
Ġkep eng
ĠAs ma
Ġdij aga
Ġdipunt em
Ġdipunt ampi
Ġob jÃ¨k
Ġkol aborasi
ino saurus
ĠSam osir
ĠPul isi
ĠKes ultanan
Pen y
Ġomb enan
Ġdha up
ĠTamb ak
ĠMong ol
Ġngas oraken
Ġkeg iyatan
ĠKolon Ã¨l
ĠWI B
Ġlengg ah
A sia
D es
R a
S itus
b in
f l
f urt
m um
r aj
Ã ²
Î µ
Ĥ ¬
Ġs Ã©hat
Ġd etik
Ġp ist
Ġp aus
Ġl ingk
si lah
as ter
ĠK ue
ĠP enc
ĠP unc
Ġw alik
el es
ĠA ja
ĠI dol
ap ore
ĠD iw
ep eng
ĠL it
ĠC andh
ĠR u
amb aran
ed eral
Ġ19 17
ĠF e
ĠY ong
uc ing
Ġpan elit
Ġngl angi
ust akan
Ġpar usahan
Ġ9 7
Ġkel angan
engg ung
ĠSp ongeBob
Ġpel atihan
ĠØ ³
ĠPl us
Ã¨mp Ã¨l
ĠKem iri
ĠPa ulo
Ġgen erasi
ĠLum ia
ĠSim alungun
ĠNus wantara
Ġdipuntepang aken
ĠDum ugi
Ġdong Ã¨ng
ĠAth ena
Ġlandh ep
ĠÃ©s uk
ĠLump ur
E M
J an
N a
P iranti
i arah
m angu
Ġ af
ka ro
Ġs inten
Ġk i
Ġk ong
Ġk ip
Ġb aya
Ġb ela
ĠS olo
Ġn iki
or ia
us ter
Ġg awang
ĠT engahan
ĠT erbaik
ap ai
Ġj an
eb an
eb alan
ĠR A
id es
adi si
ĠH il
ok tor
Ġdipun ka
ĠU lam
Ġdig elar
li on
ĠAr an
Ã©nÃ© hi
Ġdib akar
omb en
Ġ6 1
Ġtel ah
Ġangg awe
awar man
ubl ika
Ġdij uluki
lo gi
anggih an
ju ang
Ġpin yin
198 1
dok s
ĠKon stitusi
Ġot onom
ĠSid aharja
ĠMul anÃ©
ĠAst ana
ĠSus ukan
ÃĪ timologi
Ġpa it
Ġmagn itudo
ondh ok
Ġdipangg edhÃ¨ni
Ġnyep eng
Ġwir acarita
Ġump amanÃ©
Sej arah
ather ine
ĠOtt oman
ĠArmen ia
% ),
A st
K art
L aladan
P ep
P ert
W ates
f ir
Ġ é
ing er
ka m
Ġs ign
Ġd pl
Ġp ala
Ġk emb
Ġl aj
Ã¨ j
is sa
is aris
aw ara
aw anc
Ġdi hi
aka la
Ġng ep
Ġng awasi
ĠB rown
Ġg ulung
iy yah
im s
ĠL awang
ĠC ib
emb ak
ĠH ist
ĠH ai
ot landia
Ġny any
Ġsal anjutÃ©
ĠO mb
ĠPer wakilan
ian us
uka ra
oni um
Ġpeng embangan
Ġmis ah
ĠKar en
ĠAd ams
Ġmet ropolitan
Ġsen sus
Ġpend ukung
ĠPi erre
ĠØ ¥
Ġke amanan
ĠMa ulana
198 8
Ġkont Ã¨s
ĠLa ur
Ch ris
ĠFran Ã§ois
ĠDar ussalam
Ġkasar asan
Ġoy od
itt le
Or ganisasi
Ġcandh akipun
Met acritic
Ġdong a
ĠKamar dikan
Ġnerang akÃ©
ĠKaliw ungu
Ġjamb on
iff el
Ġgladh Ã¨n
Ġdiwen ehake
C onto
H en
I P
M and
U k
W is
d asi
j ian
m ak
x on
Ġd ak
Ġk eh
Ġk umpul
at antra
en se
Ġl ump
Ġl uas
Ġl angkah
Ġm akan
Ġm Ã©ja
Ġt ampilan
is ol
aw ab
Ġb or
ĠS ung
Ġn and
Ġw adhuk
ĠM anc
ag onis
ĠT eh
ĠT unggal
ĠJ ulia
ĠD ek
im in
im ah
Ġkal am
Ġkal sium
ĠH ung
ĠH ord
ok imia
ĠF ungsi
ew ati
Ġdit and
Ġpro tein
Ġmb Ã©la
Ġmb ekta
ala Ã©kat
uc ak
endh eng
Ġmas ang
ĠCh ang
Ġker ak
Ġar mada
ĠPur wa
Ġkel airan
Ġbeb erapa
Ġdid ad
unj aran
Ġngandh arakÃ©
Ġmr Ã©ntah
sit ektur
ĠKedh okteran
ros kop
Ġdipunl ebetaken
iyar akÃ©
rig el
Ġtuwuh ing
Ġsamp ing
ĠDar m
Ã¨nt ah
ĠChi eti
Ġdom inan
Ġpenc ernaan
Ġken ya
Ġyak in
ĠKul it
mul der
Ġdikembang ake
Ġdika lah
ĠbÃ© ya
ĠPungkas anÃ©
ĠKec il
á¹Ľ ti
ugih an
ĠPear l
5 3
6 4
C o
C on
E r
P ut
P anc
n al
n at
n el
Ġ anan
ar so
Ġd asar
Ġk Ã©l
at en
at ikan
Ġm ot
ur on
ĠS ekar
Ġn ut
ĠP tol
Ġw iyos
et mulder
ĠJ as
ga e
Ġj ama
eb unan
go w
ĠL ag
ĠL uwih
Ġc ont
Ġc incang
eg is
ud al
ri ed
Ġf avorit
Ġny edi
Ġper man
Ġper aturan
ob ahan
Ġngg anggu
Ġkar Ã¨t
Ġpang anggo
Ġngr angkep
Ġpeng acara
Ġdiw er
Ġter api
Ġtek o
Ġangg aran
Ġpas ca
Ġun dhang
ĠNg anjuk
Ġpel ayanan
Ã©p art
Ġpany atur
Ġbadh e
ĠPem ain
ĠPem ilihan
Ġpamb entukan
ĠHar y
ff ord
ns ylvania
Ġmilit er
197 8
agn osis
Ġantrop olog
Ġantawis ing
Ġsum ur
ĠSin etron
ĠBa ur
dom inasi
ĠEr nest
Ġngalah ake
ĠFlor ida
ĠPeg unungan
Ġtep at
Ġdikar epakÃ©
Ġnggant Ã¨kakÃ©
sun ami
Beb ungah
Ġters ebut
Ġhad its
atul istiwa
ĠsÃ¨n sus
Ġnulung i
" :
8 1
G al
J embar
S ans
a una
g ed
p angg
t op
w onten
y le
Ä ĥ
Ì ģ
Ġd osa
Ġp lasma
un itas
Ġm m
Ġm u
Ġm um
Ġm angka
Ġm rat
in ari
Ġt ort
aw ir
ĠK uta
ur s
ĠS iji
ĠS uara
ant um
ĠB ot
ĠI dul
Ġg awa
ĠT ig
ĠJ aken
Ġr abi
ĠN ir
ĠN ich
im ulyo
ĠL uk
Ġsing el
ĠR ag
ĠG as
ĠH arapan
Ġmin uman
Ġny edhiyakake
Ġper wira
Ġper adaban
tr ack
ama an
int Ã©n
Ġh um
ug e
emp alan
Ġkaw ujud
Ġpad Ã©san
Ã¨ng an
erb ong
Ġ7 7
Ã©l ing
mp Ã©
Ġ10 8
ĠTim es
eth uk
Ġsesamb etan
Ġmangg oni
ess e
Ġadh edasar
ĠSing h
ĠNeg ri
ĠAfrika ans
Ġdipunb entuk
ĠSuka mara
Äģ n
com une
ĠJohn son
ser lan
ĠMo z
Ġjaw ah
ĠrÃ© volusi
Ġsedh Ã¨rÃ¨k
ĠKong o
Ġomb en
Ġpengg emar
Ġwat awis
ĠBos ton
ĠPon dok
Ġdunung ipun
ĠStudi os
Ġmedh ali
Ġrah asia
Ġungg ul
Ġperm ainan
Ġbet on
ĠCa esar
ĠJack son
Ġnyebat aken
Ġstat istika
Ġpoten si
Ġpiw ulang
ĠTern ate
Ġngid ini
etah uan
6 2
L et
S tar
T M
T or
d ig
j ang
n old
p ers
s ub
w ulan
Ã© um
Ġs ind
Ġs ku
Ġd et
Ġp ie
in ar
Ġt rop
Ġka han
ĠK usan
ĠK ayu
ĠP oso
Ġw es
ant ah
ant ikan
el ia
ĠB anda
ĠB rig
il iki
ĠM aja
ĠT ony
ĠT ech
Ġj aga
Ġj ajan
ĠD aha
eb atan
ĠL ewis
ĠW ood
Ġc ac
adi a
adi pat
ĠH op
Ã©r Ã©k
Ġor bit
andh araken
esi rah
ĠY ear
Ġsaj ronÃ©
Ã¨r b
ĠPr ing
Ġkab angsan
Ġkar angan
Ġkar ena
Ġmb Ã©dakakÃ©
umb oni
oc ap
ĠAn om
ĠWal l
Ġtum or
Ġtek nis
ord an
ĠAng ka
Ġsin erat
mar gi
Ġdisi yap
ĠSam odra
Ġkont rol
Ġdin uga
ĠKon st
apur akÃ©
Ġbr ambang
ze govina
ĠVal encia
ĠÅ ļ
ĠGodhong Ã©
Ġnyar itakakÃ©
ĠLaw rence
ĠHim alaya
regi one
Ġkewargan agara
Ġdisil ih
ĠManda iling
) &
C D
K U
K Ã©wan
M l
g ani
g edh
p end
p utra
s ak
w ig
z at
Ġ os
Ġd Ã¨wÃ¨kÃ©
Ġl onjong
Ġl inguistik
am us
am ina
Ġt engenÃ©
ĠK imia
ur ch
Ġb ukaan
ad on
ĠS atu
Ġn i
Ġn us
Ġdi kab
Ġng urus
Ġng latih
ĠB aka
ĠM ung
ir eng
ĠD VD
asi yun
Ġr eview
ĠL az
ĠW ali
ĠR upa
ay ati
ot ta
Ġny olong
Ġper h
ter usan
Ġpr elu
ĠY ud
eka an
ĠAm bar
Ġsat o
uwih an
ind ung
ĠAr ist
ĠAn c
Ġpan en
Ġkag inakaken
Ġber l
Ġgel as
ini um
angga i
Ġpat ih
Ġngandh ani
ie go
uy uh
Ġwig atos
erm inal
Ġke uangan
Ã©d anÃ©
199 1
Ġkek iyatan
198 7
Ġê¦ ±
Ġnem okakÃ©
Ġfungsi nÃ©
Pro fil
Ã©nd ahan
Ġ190 7
Ġsu atu
Ãī konomi
Ġaka d
Ġsamp ah
row ongan
ĠNi MH
Ġasl ine
kr eta
Ġsus unan
ĠGun awan
ĠChris tian
Ġkub is
ĠSeri e
Ġintern al
ĠKant on
Ġfot ografi
rob eri
Han zi
Ġcangk em
Ġpip a
Hol land
Ġmadh ep
Ġngubung akÃ©
ĠJama ika
Ġbomb ay
Ġsreg ep
ĠMedit erania
ĠMassachus etts
! "
B ag
C r
D ewan
L eg
P ig
f tar
j in
m ud
p iyambak
w iwit
Ġ ev
Ġ undang
ka yata
Ġl ob
Ġm aksud
ur uk
Ġb ibar
ĠP ajang
Ġw icara
ant on
ro mb
up us
ĠL ip
ĠL ingkungan
ĠL Ã¨tnan
Ġpun dhi
ĠW AV
ĠC ilik
ĠC ultur
ĠG riya
angg ul
Ġkal aksanan
ĠF ord
ub ang
Ġper kara
Ġper unggu
Ġak ses
Ġh em
Ġmb alik
ist ribusi
Ġbab ar
Ġaw Ã¨h
akar an
ĠAl engka
Ġpang aribawa
Ġkaw ula
ĠSal am
Ġ8 2
Ġpas ur
Ġ12 5
har at
Ġud ang
Ġkons onan
Ãª r
ĠMah asiswa
rag on
Ġtengah ing
ĠØ ±
ĠKom ite
ĠBoy s
ĠDr s
198 0
ret eg
Ġkec epatan
ĠKel umpang
Ang g
ĠKang jeng
ĠHa ag
Ġpur un
ekt akaken
San adyan
ĠÃ¨t n
ĠRot ten
esm ana
ĠTir t
__ __
ĠYu goslavia
Ġrant Ã©
Ġdipat Ã¨ni
Ġveget arian
otten ham
ĠYÃ©s us
Ġgrav itasi
. ),
D hi
K ay
K aya
M ag
M ula
P E
P ura
V isi
k em
n us
z ona
Ø µ
Ġp e
Ġp ay
Ġp antun
Ġk uku
Ã¨ in
ah ara
Ġt andh
ĠK od
Ġlan t
ul ungan
or p
or onÃ©
ab ut
Ġng ek
Ġng edh
Ġng ira
el and
il er
ro to
Ġg a
Ġg itaris
ĠJ ab
aj o
Ġr utin
ĠN AS
Ġsing a
ĠW es
ĠR an
ĠR ebo
eg aran
Ġu dh
Ġ19 14
ot op
Ġf rom
ani um
op lasma
unung Ã©
Ġmb ed
ĠKal oro
lat hi
Ġdib Ã©dakakÃ©
re a
Ġker j
Ġker ajinan
Ġter jun
Ġdir as
Ġpik ir
ĠAs al
th ew
Ġ11 5
Ġpert empuran
Ã©t ungan
atur al
ĠMin or
une i
ĠPen nsylvania
Ġisi nipun
Ġdin yany
Pro sÃ¨s
Ã©nd ral
ĠSin uhun
ĠRo ad
ĠStudi o
Ġnginggil ipun
Kam entrian
ĠHot Ã¨l
Ġdipangg oni
Rob ert
ĠKeh utanan
" '
6 1
A ri
B ak
B ad
C he
G um
G uwa
S and
S op
S acara
d ay
j ol
j ect
m ing
o on
s uk
s man
t ika
t et
z ation
Î º
Ġs Ã©k
Ġk ok
al ity
er r
Ġka anggep
ĠK n
Ġb unc
ad angan
ĠS imb
Ġn ampung
Ġn anas
Ġw etan
ul ake
or si
Ġng arah
Ġng ugemi
ant angan
ĠB un
ĠA rok
ĠA PG
ĠA lai
Ġg at
ĠT in
ĠD ef
ĠD Ã©ning
ĠL uka
sa punika
ĠC onc
ĠR em
ĠIn f
ĠG an
ĠG endÃ©ra
and on
ĠF ab
ani e
Ġny ukupi
Ġak rab
Ã¨k Ã¨
Ã¨r akÃ©
Ġkr ungu
ĠAr thur
Ġpang hargaan
Ġput usan
ĠMar se
san Ã¨sipun
Ġpeng arang
Ġjam ak
Ã©k o
Ġkep em
war u
ord ania
ĠBl ue
Ġdipuns adÃ©
ĠMan okwari
Ġlair Ã©
Ġkam ungkinan
ĠSh ang
ĠPat rick
ĠFilm s
reng enge
Ġkont empor
ret ariat
ĠSi do
197 5
Ġditer jemah
Ġ189 6
ĠSw it
asih at
inj ai
ĠBag us
Ġanim e
Ġkos ong
Pol it
Fr ance
Sep ur
ĠUs aha
Ġnasi b
ĠBut on
Ġpsik ologi
ĠFrancis co
Ġlit eratur
Ġngab di
ĠZo etmulder
C ap
E AN
F l
M es
O L
P itik
S C
h asil
j em
p as
p it
p ia
v et
Ġ ia
Ġs kenario
ar anipun
Ġp eta
Ġp abuk
Ġp izza
Ġk w
Ġl Ã©san
er lan
Ġt v
Ġt es
Ġt ert
aw uhan
Ġb y
ĠS ant
Ġng us
ĠM agn
ol in
Ġj ebul
Ġr angka
Ġr evolusi
ĠN an
ĠL anda
ĠC D
ĠC op
eg or
eg aken
eg ake
amb er
ĠG hana
ĠG yeong
gi on
anc am
Ġnj ajal
Ġpang ripta
Ġpang alembana
Ġpan andhang
eh akÃ©
Ġro s
Ġsar em
Ġwew enang
Ġad ik
Ġ7 3
Ġsek retaris
udh ur
Ġ8 3
Ġ8 7
Ġangg rÃ¨k
ord inasi
enc es
Ġpel opor
rip t
ĠTan pa
ĠQ ing
ĠAc eh
ĠOr de
uwa os
Ġdin anÃ©
Ġputr inipun
akr ama
Ġsikil Ã©
Ġprib ad
Ġpengg anti
Ag ama
Ġprakt is
ĠGen eral
Ġdipundh ahar
ĠChampions hip
Pa ul
Ġangk lung
Ġdimain akÃ©
ĠProt Ã¨stan
Up acara
ĠWik ip
bour ne
ĠSusuh unan
ĠHord aland
: "
A sil
D o
J epang
P eg
W ir
b as
k embangan
s ka
s ky
v ey
Ġs ultan
Ġd Ã¨
Ġd ef
Ġm Ã©n
Ġm Ã¨r
ĠK uning
Ġn ir
Ġdi arah
ĠP amar
Ġw usananÃ©
ul ian
dh ok
el um
ĠB angkok
Ġg uy
ĠT alang
uw enÃ©
ĠD ik
ĠD ua
Ġr esis
ĠN on
ĠL amb
ĠL abuhan
ĠC re
atan an
id ya
ĠG iri
ta v
Ġmin at
op atra
adh u
Ġak tip
Ġpr ahu
au an
ĠE mb
ĠY ahya
Ġmen u
Ġnd uwur
ib i
angk ud
tas ari
ont e
Ġsar at
ch an
Ġsan esipun
tur i
Ġsep aro
ond ang
awar na
ĠAw al
ĠQ ur
lin ois
ĠPan litian
ĠØ ª
à¤ ¿
Ġdisi p
Ng anti
Ġpal abuhan
bo ten
Ġdhi m
Ġdipunl ajengaken
ongk on
ĠWiwit anÃ©
Ġsej arawan
Ġnggambar ake
ÙĪ Ø§
ĠMic hi
Ġbel akang
Ġsadh ar
Ġhid ro
Ġpur ba
ĠBad uy
Ġarsit Ã¨k
Ġsh ow
Ð¸ Ñ
Ġdiad ani
ĠStev e
Ġkapit ayan
Ġnampil akÃ©
Ġklor ida
. &
B umi
D aging
F akultas
G e
G o
I si
L es
M r
b il
b ol
n on
r iller
t ama
Ø ·
ka wis
Ġs ist
Ġp ort
Ġk emenangan
aw itan
Ġng ut
el ai
ĠA ch
ĠA KB
ĠI KIP
ĠT ottenham
ĠJ e
ĠJ eff
ol Ã¨h
ĠD ij
ĠD oc
ĠD ukuh
iy e
Ã©n si
ek om
ĠL esmana
ĠW iji
ĠR asa
id ge
ĠG eg
ĠG owa
emb akan
ĠH og
ĠH AM
ot rof
ot kaca
Ġny etak
Ġsal in
Ġpr iyantun
Ġdip otong
ĠE mas
ĠE iffel
ĠO str
ĠAm Ã¨r
Ġdit ata
ug uh
emp lak
ĠAn dal
ĠCh o
Ġbo y
aksi s
ĠKar l
Ġber d
Ġbi ologis
ĠMas ter
Ġamb al
Ġduw Ã¨kÃ©
Ġkons ervasi
Ġpany uw
Ġkadh apur
198 5
Ġsej atine
St asiun
Ġditambah akÃ©
kin awa
ĠKong grÃ¨s
ĠSil esia
Ġpati ya
ĠWilliam s
ĠMur ia
Ġvid Ã©o
Peng hargaan
Ġdo dolan
Ġris ak
Ġlep as
ĠWill em
Ġningkat aken
ĠRat na
Ġkot ak
ĠIS O
Ġhist oris
ourc uff
Ġunj ukan
Ġdiwer uhi
Ġdisiyap ake
6 7
6 9
N ama
O ne
P ac
T rans
b ack
g ate
j at
r el
r ima
t ek
Ø ²
Ġ og
ing inan
Ġd ewan
Ġd inding
Ġp aku
Ġl angg
Ġl Ã¨g
Ġl ucu
Ġm ari
Ġm ubeng
er os
as ake
ĠK umb
ĠK opi
ĠS arah
ĠS iwa
Ġn edha
ĠP P
Ġng libat
el asan
ĠB rian
ro id
um ar
ĠM ut
et epaken
Ġg am
Ġ" .
uw ak
ĠD at
ĠD it
ih ad
ac ana
ĠN aga
ĠL asem
Ġc oba
Ġc enderung
ĠR and
Ġdh ir
id j
ĠG ib
Ġut usan
ari um
ti ons
Ġman ah
ĠE th
Ġmen angi
Ġngg aw
Ġkas til
Ġh urup
oc o
iv a
Ġpan utup
ĠCh an
Ġad il
Ã¨t ik
Ġmis teri
oy ong
ĠdhÃ©wÃ© kÃ©
Ġpar lemen
Ġ10 4
Ġbi ara
Ġdipuns ar
ĠNg l
ĠNg al
anggep an
ĠPol ri
Ġob yÃ¨k
ill es
ĠMas kapÃ©
Ġ() )
inc ent
olog na
ĠÙ Ĥ
Ġmed is
Ġmangk ok
ĠFr ed
198 4
Ġnger ilis
Un dhang
Ġkec ut
St adion
Ġgen re
Ġpucuk Ã©
irahan ipun
Ġtop eng
Ġeks tr
arib asan
ĠKen ya
Ġpis ang
ĠSk otlandia
kup an
Ġasi st
ĠBor ussia
Ġpriya yi
Ġrer angk
ĠMangkun agaran
Ġasp ek
ĠMos k
Ġdibandhing akÃ©
Ġsangandhap ing
ĠmÃ©l u
ĠAmbar awa
ĠSwit serlan
1 50
8 3
C an
D is
E x
I ki
M ul
M it
P amb
U l
W in
h ard
p anganan
t Ã¨n
w ell
w ewengkon
Ð ´
Ġ q
Ġ ew
Ġ evolusi
ang ke
Ġs eorang
Ġp u
Ġp ayung
un ah
Ġl embar
Ġm acapat
er ma
ak unÃ©
Ġt una
ĠK ara
ĠK ont
Ġb esi
Ġb eri
Ġb awah
Ġn Ã¨ng
Ġdi manfaat
Ġng ubah
ĠB eck
et ta
ĠT u
ĠT ari
Ġj adwal
ep on
ĠN op
ĠL ah
ĠL is
Ġc adhangan
ĠG unggung
ĠG old
and ard
emb aran
Ġ19 13
Ġf ac
ub ahan
Ġny ir
Ġper anÃ©
adh e
uj ang
anging gil
esi an
ec tor
od ya
ĠPr ad
Ġh ingga
ĠV atikan
iyamb ake
ĠAr ts
imb ar
ump ut
air e
ĠBr ad
angun ing
Ġuk iran
ĠZ a
Ġdic incang
erat on
udi o
Pr abu
Pr estasi
ingk esan
Ġsem ut
Ġkh asiat
Ġpend iri
Ġkes el
ĠNew s
ly n
ĠÃ©k osistem
198 6
Ġdol an
197 1
Ġditer ang
Ġ190 6
ark et
ĠJos h
Kl asifikasi
Ġsadh Ã¨rÃ¨k
ÃŃ a
godh ong
ĠTor onto
ĠAdip arwa
ĠAlex and
Ġâ Ĥ¬
ras ah
Ġdisebab ake
ĠDPR D
ĠChrist opher
Ġbad minton
ĠNord land
ĠRach el
Ġnge dol
! !
C andh
J uwara
J alur
M e
S eb
U jung
b ury
c ia
f ur
g Ã©n
h en
n en
o ed
y anjana
Ġ %
Ġ 01
Ġp uding
Ġk ey
Ġk ukum
al Ã©k
Ġl ab
Ġl es
Ġl irik
Ġm aw
Ġm rodhuksi
in ya
Ġt ra
Ġt uju
ĠP om
ĠP angan
ĠP unj
eng sem
ĠB urg
ro e
us Ã¨n
Ġg ran
ĠJ ava
Ġj enis
ĠD hi
ac itive
ĠN Ã¨d
ĠL Ã¨r
ĠC ons
eg lang
Ġkant hong
Ġmin dh
Ġf i
ĠF amil
ub ug
tr onomi
ob an
ic us
od or
Ġsaj ati
Ã¨r n
akar na
emp el
aring akÃ©
ĠUn dang
Ã¨ng ga
Ġ7 1
Ġsek u
tur e
Ã©s or
ĠZ hu
tern al
Ġ10 9
Ġdil apisi
Ġun iversal
inan sial
Ã©ja an
Ġsas ampuning
Ġib n
Ġkulit Ã©
uga sipun
ĠPas kah
Ġgeg andhÃ¨ng
ĠSy d
mas ak
ĠSar jana
Ġmah amantri
Ġmest h
ĠGu inea
IN G
ĠTul adha
ĠKen n
ĠGun tur
ism is
Ġnit rat
Har ry
Ġketh oprak
ĠNap oli
Ġref er
Ġhar fiah
ĠPerd ana
Ġdl ajah
ĠKrab s
Ġnag aranÃ©
Ġfilosof i
Ġreligi us
Ġditek ani
niv ora
awanc ara
ĠWAV uga
Ġdisip lin
" "
/ ,
E m
E ric
N am
P hy
R asi
T ak
W edh
b ut
b angsa
h ang
k ov
k embang
l eks
r iyah
s ed
v ers
× Ļ
á ĥ
Ġ au
Ġ imbang
Ġ iman
an si
Ġs if
Ġs ambung
Ġs utra
Ġk op
Ġk Ã¨l
Ġl awak
Ġm eg
Ġm ic
er asan
Ġt omb
Ġka do
ĠK asil
Ġb aja
Ġb atin
ĠS eti
ĠS impang
Ġdi lair
do t
Ġng op
Ġng ontrol
ant ing
ĠB ing
ĠB anggai
ĠM exico
ag ne
ĠT un
asi la
ĠL ow
ĠL osari
Ġsing g
ĠC our
Ġdh awah
ĠF ederasi
amar an
Ġpr ak
esi ran
ib an
Ġkab ukti
Ġant araning
Ġmb iwara
Ġaw is
Ġsam saya
Ġpang ay
Ġpang eran
Ġar oma
Ġpangg ah
ĠWal ik
Ġdic aturakÃ©
Ġ12 00
ĠMan aj
Ġrum us
Ġrum aos
to doks
ĠMah araja
Ġpit akonan
Ġnulis akÃ©
ĠPas ukan
Ġ0 4
ĠPeng embangan
ost olik
Ġind ependen
ĠSl ow
Ġbuk unÃ©
ĠPert ama
Ġpisan anÃ©
ĠBeb arengan
ĠNam anipun
ĠHak im
Ġwarn inipun
Ġkapit adosan
Ġded agangan
organ isme
ĠEt hiopia
Ġseks ual
ĠnggolÃ¨k i
Ġbunc is
H O
K reteg
N ord
O mah
T o
T iyang
b en
c l
g ane
g aris
g han
l arasi
m aja
p ad
w on
w ujud
x ima
y en
z ia
Ã ¬
Ù °
ang kang
Ã© finisi
Ġs uda
Ġs ungs
Ġp aman
Ġl atin
Ġm ancan
ur ahing
Ġn af
ĠP ab
ĠP uisi
or ah
ab udhur
ro ke
ĠT ata
ĠJ oko
ĠD ora
eb eg
Ġr asane
Ġr antai
Ġr adÃ¨n
ep si
ĠL emah
ĠC emp
Ġc c
ĠR ol
os kop
ĠG aya
ĠG uang
ot Ã©
Ġkap an
Ġny et
og n
adh as
Ġas ap
Ġal un
Ġsaj eronÃ©
Ġpro ton
Ġmb ikak
Ġbab ad
Ġum ah
Ġ18 00
Ġsap iturut
Ġro mb
Ġdib uwang
Ġdib umboni
imb a
ĠAg am
ĠBr unei
Ġmis kin
Ġ10 7
ubl ic
ell er
Ġsem ono
Ġset ya
erika tan
Ġmer l
sur at
urn alis
ĠSer v
ĠKam angka
ĠSy ekh
Ġpep erangan
Ġil at
ĠPurw akarta
ĠKur awa
ĠIl linois
Ġsay embara
Pan asonic
ĠIsra el
Sa int
Gr up
Ã¶ r
Ġgarw ane
Ġdisaj ekake
Sid amulya
Ġlar ut
ĠPon ti
Ġpenj ajahan
ĠLib anon
ĠHen ri
ĠFer dinand
ĠWat son
ĠMong olia
erd ekaan
ĠCacah Ã©
Î¿ ÏĤ
Ġcom une
ĠSangs ekerta
ĠPlat ini
Ġdisug uhake
ĠspÃ¨si Ã¨s
ĠIndon Ã¨sia
Ã©rÃ©ng ipun
ĠSanj aya
Mic hael
Ġgandheng ane
Ġnepang aken
ĠKaliny amat
Ġsib uk
Ġdhim Ã¨nsi
ĠSyd ney
8 4
B h
G i
J am
N C
V al
d Ã¨n
k ue
s ami
ang in
Ġs umpah
Ġp Ã¨rÃ¨ng
Ġl emu
ik us
ak ili
Ġb agi
Ġlan tai
ĠP anjang
Ġw ilah
eng ipun
ant as
ĠB le
ĠB ener
ĠM ulya
et ung
uk uman
ĠD ian
asi t
Ġr ib
im anyu
ĠL ig
ĠL air
ĠC omo
id d
ĠG ag
ĠG ran
ĠG ourcuff
Ġkap entingan
Ġpr efektur
ĠO scar
Ġdig orÃ¨ng
od es
angk itan
Ġpro y
Ġpen uh
ĠDh asar
ĠPer juangan
ĠPer encanaan
Ġsam udra
Ġfilem Ã©
Ġv isi
Ġngl angkungi
Ġker aton
ĠBr uno
Ġ15 00
Ġsw arga
Ġpert umbuhan
Ġset unggaling
ĠSing ah
Ġgl uk
Ġdim aksud
Ġrum pun
Ġgar udha
ĠMaj alah
Ġendh as
ĠPad unung
ĠWil son
ĠSaj rone
ost um
197 3
Ġbis kop
Ġgen etik
Ġkrim inal
Ġngan akake
ĠTok oh
Ġnet es
Ġfr ekuensi
ĠJati barang
Musi k
ĠgÃ© ologi
Ġngas o
ĠKomun ikasi
Ġtut uk
Ġteles kop
Ġningkat ake
Ġcap acitive
ĠWol f
Ġkenc eng
Ġditayang akÃ©
idad ari
Ġibuk utha
ĠRecord s
Ġdigeb yakakÃ©
ĠBomb ana
rovinc ia
ĠMarse ille
" &
C ol
D ol
F B
J ean
O t
R o
b isa
f os
g h
g ambar
j Ã¸
z uki
Ġ otor
Ġd ar
en sa
Ġm ij
Ġt ing
Ġt Ã©r
Ġt api
ĠK A
Ġb umbon
Ġn eges
ĠP ah
Ġng uwaosi
ĠM ot
ĠM ini
Ġg una
Ġj iw
Ġr ingan
ep at
im o
ĠL ot
ong s
ĠC O
Ġc edhakÃ©
Ġu b
ij o
ri ve
ĠH ang
ĠH erc
Ġf Ã©nom
ĠF inal
Ġny iptakakÃ©
op ati
ip at
ter dam
ĠO kinawa
ê¦ Ķ
Ġmb agi
ĠV ill
ust inus
ma is
Ġsab ibaripun
erb angan
Ġad us
Ġjam anÃ©
ĠSt one
ĠKap ing
oj i
Pr ancis
eth ak
Ġ11 4
Ġmar akakÃ©
lo go
ĠMah kamah
Ġij em
Ġdisi yar
Ġmang ertÃ¨ni
ê§Ģ ê§Ī
ĠFr eder
Ġlemb aran
ĠSi ang
ĠKon awe
197 0
197 6
Ġpak unjaran
olek i
ĠPand eglang
ĠNor weg
Ġhid up
Ġperd amaian
ĠDir ektorat
Ġped unung
ĠJat is
ibat akÃ©
Ġdalem ipun
ĠOt to
ĠKembang Ã©
ĠSud an
ĠBro ad
Ġmaring aken
ĠNas ution
Panjeneng anÃ©
ĠpagawÃ© an
Ġrok ok
ĠOff ice
ĠCenta uri
ĠClas sic
A ustr
B ay
G and
M ur
R ingkesan
S egara
d ing
l ish
t embang
t itas
Ġ 00
Ġp Ã©n
Ġp akul
Ġm atur
er ep
in es
Ġt uj
is ana
ĠK ita
ĠK encana
ĠP ungkasan
dh u
ĠB ibar
um entasi
ag us
et ra
es ti
Ġj og
Ġj eblugan
ĠD un
ĠW eb
Ġc ec
ĠR ev
amb igu
Ġut ang
and angan
ha e
ok ot
Ġkap ten
Ġor dho
op ter
Ġper j
Ġngg adhahi
Ġh amb
Ġmb ak
Ġsat Ã©
ĠPer i
uc e
ĠKal it
Ġpan erus
Ġngl ump
Ġ18 60
Ġput u
ĠCh en
ĠCh eng
Ġdis ingkat
ori al
ath ok
und track
ologi cal
ĠBar eng
ĠLor d
Ġdic ithak
Ġdic eluk
awe an
Ġdipunp impin
ĠSel andia
ĠMan usia
atur e
adÃ© yan
Ġam rih
Ġdhasar Ã©
rom osi
ĠSuka r
Ġposisi nÃ©
ĠAp ik
alik Ã©
angu age
Ġngremb ug
Ab u
Ġngembang aken
godh ok
ĠSat ya
Ġtengen ipun
Jinis ing
Ġnet ep
Ġkulawar ganipun
ĠSamp eyan
Ġkut ub
ĠMaz da
Band ung
Ġasm anÃ©
ihat su
essi ca
Ġditandh ani
A f
A frika
C ib
J amb
M ed
d on
d aging
e en
h em
k ologi
l asi
l ob
p rod
v ika
w Ã©tanÃ©
Ã ®
Ġ iri
Ġ asis
Ġ Ã©ra
Ġs ilihan
Ġd eka
Ġd uka
Ġp upuk
Ġk egiatan
Ġl iter
er ry
ik en
ah anÃ©
Ġt anda
Ġt unt
Ġka os
as at
as Ã¨kakÃ©
ĠS antos
ul aw
Ġng urip
ĠB od
ĠA da
Ġg i
ir ul
ara f
uw uran
awa u
ĠD aw
Ġr Ã©ncang
im Ã©wa
ĠC erb
Ġc il
Ġc rak
Ġc agar
id al
angg i
Ã¨h ing
ew s
ew eh
ub er
ĠU I
tr ans
anc ong
ej i
ĠY ordania
Ġngg elar
art os
Ġin s
awÃ© an
Ġpan umpang
Ġ6 7
ump ukan
Ġpeng in
Ġsek ul
Ġkag ungan
ĠSp ort
ĠAs ring
Ġsekolah Ã©
th er
Ġres m
An dr
Ġkam aharajan
Kar akter
Ġkol on
Ġked adÃ©an
Ġpes ta
Ġam Ã¨h
Ġmr iki
Ã¥ s
Ġbag Ã©yan
As am
Ġkont ak
Ġpak et
ĠPurw okerto
Ġpucuk ing
ester ol
usul akÃ©
Ġ190 3
Ġtur is
Ġprab Ã©dan
Ġda Ã©rah
ĠFran z
ĠDip anegara
Ġjaj ahan
ĠPo kÃ©mon
Suka reja
Ġmant ra
ĠÃ¨ks ekutif
kac angan
Ġsac edhakÃ©
ĠKos ovo
ĠSom alia
ĠdhÃ© wÃ¨
ĠÃ¨ksp Ã¨dhisi
Ġngras akakÃ©
ucet ia
Tah un
ĠNug ini
ĠMov ie
ĠVirgin ia
Pe ucetia
ĠKaz akh
Ġvulkan ik
Ġkepriy Ã©
Ġced era
Ġakad emi
ambigu asi
Ġcrak Ã¨n
% )
. (
B end
K ont
K ue
L ee
N o
R atu
S u
U C
W angunan
h ok
p lanit
s alah
t ropis
v re
w ad
Ġ Ã¨p
Ã© i
Ġs erb
Ġl ambung
am er
Ã¨ an
is ma
Ġb eng
Ġb asanÃ©
ad ean
ĠS lav
Ġdi oksida
ĠP engg
ĠP ho
ĠP anggang
ĠB agel
um er
um asan
ĠA ust
ĠM odh
ĠT ong
ĠT embang
ĠJ ersey
ĠD ury
iy anti
Ã©n e
ĠL egi
Ġsing katan
ĠG ondhang
and e
Ġ19 15
Ġf inansial
Ġkap inter
Ġper airan
any ata
anggo ta
end y
od Ã©
asar jana
Ġh am
umb ul
umb ai
ov en
iv Ã¨rsi
ard in
Ġro da
Ġsab un
ĠBar on
Ġdiw engku
ĠSt ate
Ġgr iyanipun
Ġuk uman
Ġber ita
Ġtek anÃ©
Ġkad is
if ic
if ikan
Ġdipunp ilih
onom ian
Ġkomp et
ini que
Ø§ Ø¨
ĠSo et
Ġadh inÃ©
Ġtengah Ã©
ĠMaj akerta
Ġputr inÃ©
Ġcer ita
ĠSw edia
min or
ÅĤ aw
Ġbas s
Ġbas ket
car ita
Ġngand ap
Ġneg eri
enn ifer
Ġnit ih
ĠSosi alis
ĠGir l
ĠPaku alaman
Ġnyer ep
ĠBeng awan
ĠZh ang
ĠdhÃ© finisi
Ġmaksi mal
ĠSC TV
Ġlok omotif
Ġdiumum akÃ©
Ġumb i
ivÃ¨rsi tas
B ali
C il
D el
F or
H al
K S
R T
S w
S ind
T um
c andhi
d ana
f oto
Î ·
Ø ´
Ġ à
Ġ ama
Ġ eri
Ã© lan
Ġs arang
Ġk ow
si te
ik il
ah ari
ur ia
Ġb aris
Ġb ungah
ĠS ok
Ġn ate
ĠP av
ĠP ekan
it ro
ĠB y
ĠM uk
ĠT andha
es tu
eb onan
ih ir
ĠL y
Ġc ikal
ĠR S
ĠR amelan
ĠG lagah
Ġf lav
ic i
ĠE f
âĢ İ
ĠPr imer
Ġdit unjuk
Ġmb l
ug atan
Ġkac epetan
ĠPer aturan
Ġsam odra
Ġsam angkÃ©
uc hi
Ġkaw at
Ġ4 80
Ġ5 9
ulo sa
Ġag amanÃ©
Ġsab ar
Ġpeng adilan
ĠBar abudhur
ers ana
Ġ8 4
Ġket ok
ĠSaw it
Ġsaben erÃ©
Ġdipunp andhegani
Ġgel andhang
Ġkomp oser
ĠAs ha
Ġsw aranÃ©
Ġamb u
Ġkem ungkinan
ĠAk bar
ê§ ĩ
ĠtÃ© ma
Ġdisi gar
ros s
ĠIb uk
Ġ189 9
Kl ub
ese arch
Ġomb ak
urm ati
ĠSk Ã©nario
ĠFrank furt
ĠBanyu urip
Ġdem am
Ġlep en
ĠSangs kreta
ĠTÃ© yori
Ġgro jogan
ĠKamp us
Ġlanj ut
Ġngendh og
ĠJog ja
ĠAmer ga
Jend ral
osint esis
Ġpabuk on
ĠNÃ¨d erlan
ĠPonti anak
/ .
A w
A margi
I F
K un
R C
Y a
b erang
l el
p ring
u id
v Ã¥g
Ð ¼
ng Ã¨lmu
ing ah
en h
ak ula
Ġt entara
Ġt sunami
ĠK awi
Ġb ang
Ġb uri
ad ar
ad ahi
ĠP C
ĠP all
Ġw ungu
ĠB ib
ĠB ayu
il onia
ĠA lt
et ri
Ġg antung
ĠT ob
uk ang
ĠJ uan
Ġr apat
ĠL ak
ĠC E
ĠC F
ĠR aw
amb utan
id ra
ĠG ang
ĠG amp
ĠG elar
Ġ19 16
ot rop
Ġf Ã©dh
Ġsak loron
ĠF l
ĠF ederal
ew e
Ġor anye
op ak
Ġdip an
Ġdip ro
Ġal angan
Ġdig iyarakÃ©
ĠAm an
ê¦ ķ
ĠPr Ã¨si
Ġkab angun
Ġmb uka
ĠV illa
Ġpen er
Ġdik elola
ard s
Ġro las
Ġdis k
Ġngr ekam
Ġwek t
ĠPur ing
ingg it
Ġsep erti
Ġdic iptakakÃ©
ĠKar akter
ons ter
Ġir ingan
Ã©t ak
Ġmet abolisme
ual angan
ĠPen elitian
Ġpes agi
uth uk
201 9
Ġjag o
ĠKam al
Ġa udisi
ĠÃ¨l muwan
ĠWil helm
197 7
Ġ190 9
Ġdipunc akaken
Ġcer ai
ĠKo ordin
Ġpej uang
Ġperk ebunan
Ġma ujud
Ġsus uh
ĠJam ur
Ġpamar intah
ĠJon es
ĠIndh iya
ĠSip il
Ġbany unÃ©
ĠMandar in
Ġpaj eg
ĠBros nan
ĠCle opatra
Tran sportasi
edik tus
A H
E F
G ambar
H ak
K andh
S m
T ugas
U rip
b areng
c r
i ana
l arÃ©
n op
Ġ omong
ka ri
Ġp ayon
Ġp ucet
Ġp aguyuban
Ġk ismis
er ipun
is ak
Ġlan car
Ġn untut
Ġik on
ĠP il
ĠP unt
ĠP anggung
ul in
ul isian
or anÃ©
ab h
ĠA yah
ĠM ill
ag una
et akÃ©
ĠT engg
ir ikaken
uk yu
ap us
aj arah
ep uh
ĠL ud
Ġc ol
ĠR ai
ĠR iver
ĠIn t
ĠG edhung
angka ran
ĠH arian
Ġkant on
ot is
Ġkap apat
edh ang
anti um
ĠO m
Ġal ias
lan k
Ġan om
ch in
ĠUn tung
eni um
Ġ6 3
kar bon
ath on
ĠMal ta
Ġpangg una
ĠIs landia
ĠBr on
Ġat inÃ©
oy ak
ĠKar no
Ġter usan
ĠAd at
ĠAd ri
ĠSa f
Ġpap rika
Ġpert andingan
Ġsen ar
Ġpend apatan
ĠQ ajar
Ġop era
Kal im
ĠMaj or
ĠÙ Ĩ
Ġmul ai
ĠSak w
ĠSy stem
Ġpep anggihan
ĠDr ama
eli um
ting gi
ĠAp ostolik
Ġdipung inakaken
Ġbis kuit
Ġprot Ã¨in
oth ok
Ġomb Ã¨n
ĠGl obe
raf t
Ġras ul
ĠMand ala
Ġfisika wan
ĠDom in
Ġngent Ã¨kakÃ©
zu ela
Ġpersi apan
Im am
ĠDah lan
Ġident itas
L as
P M
R um
S un
T em
U T
h ubungan
k um
k Ã¨t
m es
m alang
m ligi
n ut
Ġ ç
Ġ idh
ka dh
Ġd awanipun
Ġp anti
Ġp aÃ©san
am ia
Ã¨ ji
ah un
Ġka Ã©ndahan
aw inipun
ĠK H
ad el
ĠS S
ĠS ula
Ġn iru
Ġdi ob
ung anÃ©
it eri
ĠB urn
ĠB harat
ĠI ra
ĠI man
Ġg adah
Ġg erbong
ĠT rib
ĠJ ake
uw aran
ol Ã©
ĠD J
ac u
om ena
ĠL angkat
ĠW W
ĠW arga
ĠC Ã©ko
eg el
eg esi
and al
ri es
ta ya
ĠH ati
ent asan
Ġny emp
ungg ang
Ġdip ert
Ġdip indah
esi t
ĠAm bal
od ium
ĠPr usia
Ġin ci
ĠPer guruan
ungan ing
Ġngl anc
Ġsad Ã©rÃ©ngipun
Ġan ama
asan Ã¨sipun
ĠMar g
Ġngr ung
Ġsab anjure
Ġar eng
oro ugh
imp a
Ġst roberi
fi q
Ġ10 2
Ġsw atantra
Ġpir sani
ĠKab inÃ¨t
trik er
ĠspÃ©si Ã¨s
ĠPan ama
ĠPan embahan
ĠEn im
ĠBab ad
ĠAp i
ĠMel bourne
Ch rist
ĠAS EAN
Ġngarep Ã©
Ind ia
Ġwangun Ã©
Ġ189 0
ĠMat thew
rok ok
Ka anan
Ka isar
ÃŃ n
Ġlog ika
Ġreg anÃ©
Ġtop ping
ĠGl obal
Ġo ut
ĠCom m
ĠMc C
ĠEv erton
ĠTum enggung
Ġkasi mpen
dipun unduh
ĠdiwÃ¨n Ã¨h
ĠNar uto
Ġbert ahan
Ġasp Ã¨k
Ġbah wa
Ġgodh og
Ġlak unÃ©
Ġdumad akan
ĠRasul ullah
aksan akaken
ĠPunc ak
ĠMichi gan
D ar
D um
D alan
H el
J uli
K ert
O s
S ol
c asarjana
o es
p al
q i
r ul
s ap
z cz
à ¯
al ahan
er hana
Ġt est
Ġka ter
ĠS emp
Ġdi sir
Ġdi ubengi
do yo
aka an
Ġng ant
Ġng untung
ĠB ayan
ĠA dh
ĠM ali
us ake
Ġg il
Ġ( '
ĠJ aran
ap utra
ĠD w
ĠD ari
asi nÃ©
Ġr ilis
ep us
ĠN ah
ĠL Ã¨pÃ¨n
Ġc incin
ĠR up
ĠG las
ay oran
Ġdipun an
Ġsak up
ĠU GM
ter an
andh ut
ig g
Ġy Ã©n
st at
ug at
ain s
Ġpen eliti
oc ok
Ġsatungg il
Ġv aksin
Ġpan aliti
ast ro
omp okakÃ©
Ġab jad
Ġput eran
ĠCh urch
und i
erb al
Ġat l
Ġ8 9
pr as
Ġpar lemÃ¨n
Ġdhuwur ipun
Ġmal em
Ġkep ara
Ġ10 3
ĠMan is
ĠAb raham
ĠAb imanyu
ell ow
Ġlel urahing
rat on
ĠBanjar baru
Ġpopul aritas
Ġser agam
ĠEn de
Ġmed an
Ġmod al
ĠOr todoks
ĠIb unÃ©
com uni
Sal at
Ġth riller
ĠMed ang
Ġdipunk intun
Ġ189 5
Ġmit ra
ĠRe ims
ugu ay
Ġpur wa
Ġdisaj eni
oris on
ĠMe iji
ĠTe uku
Ġid in
Sid areja
erv atif
ĠâĢĺ âĢĻ
ĠMag etan
ĠAf ghan
ĠPes awat
ĠMent ri
dis ambiguasi
ĠFranc o
gong an
ĠMam uju
ĠSamar inda
ĠTra fford
Jer uk
Ġkeku asaan
Pig una
A y
A mp
C angk
U la
b ag
c or
d aya
e ed
m ung
n anÃ©
s aking
z al
Ù į
Ġs au
Ġp emenang
Ġk la
al at
al aba
en alan
si ji
ak uan
Ġt ernak
Ġt antangan
Ġt ugasipun
ĠK ey
ĠS Ã£o
em tu
or ok
eng aruhi
aka man
Ġng ol
ĠB ap
ĠB ra
ĠB ani
ĠB au
ĠB awana
ĠM ap
ĠM bah
Ġg Ã©ografi
ĠT eng
ĠT uh
ir in
hi e
iy anto
om en
ĠC andra
ĠC opa
ĠR obot
ĠG ong
and ung
anj aran
amp is
amp ok
Ġny enengake
andh u
Ġdip indhah
ĠO ka
Ġdig aw
Ġdig ant
end ahan
ĠPr esi
Ġkar usakan
ĠPer ry
Ġnj angkepi
Ġpang arsa
Ġpan lit
Ġngl uncur
ĠCh ung
Ġker amik
Ġpam ikir
ĠIs abel
Ġmusi kal
areng i
uan ia
ons truksi
ono id
Ġdir endhem
Ġmangg ung
Ġpeny erang
Kal iw
Ġsuw i
Ã¥ r
Ġpin unjul
ĠSy arif
Ġtran sp
Ġdol ar
Ġnem okake
Ġpl esiran
ĠWar s
yak ini
Ġjer one
pen y
Ġ188 9
Ġnet epaken
ĠKaw asan
erl uan
ĠRes ep
ĠBol iv
ĠPangg onan
agas kar
Ġle uk
ĠAbd urrahman
Ġdipl omat
ĠAbb as
Ġdiluncur ake
ĠAdministr asi
Ġpran ata
ĠOlymp i
Ġjuni or
ĠMangg arai
Ġnark oba
A dhedhasar
B ir
C ep
D ipun
H abitat
K asil
K anggÃ©
M il
P anj
W e
W atu
b ach
c an
c as
d z
j ong
k ung
v okal
Å ¼
Î ¬
Ġs itu
Ġs owan
Ġd arat
Ġd apat
Ġp ama
Ġp oh
un try
al uh
al isi
at r
Ġt i
Ġt akon
Ġt apak
Ġka man
ĠK uth
Ġb aru
Ġn ik
ut Ã©
ĠP Ã©r
ĠP angkah
it Ã¨r
ant or
ĠB iru
ĠB athik
um ahan
ĠA ur
ĠM C
es mi
aj uan
ĠD iego
Ġr iwayat
ĠN ev
ĠN orm
ĠN yai
ĠC ul
ĠC av
ĠC atherine
Ġc ek
ĠG ath
Ġkal ampahan
Ġdipun andharaken
Ġf rag
ent ifikasi
edh an
Ġsal ib
uj ugan
anc y
ĠE ka
ĠO S
ĠO y
Ġal i
Ġdig andheng
ĠPr as
Ġdit arik
st ra
oc al
Ġpang sit
ĠAn di
19 45
rop ologi
Ġdik ethok
ĠMar x
ĠMar ley
omb ong
Ġtet ap
Ġ7 50
ĠSal at
ingg il
Ġ8 1
ĠKar na
Ġ9 4
Ã©k si
Ġdir ampung
if t
Ġ11 1
Ġ14 0
ĠSing apore
Ġpol itisi
ĠAc tor
sis tensi
Ġsuw ene
Ġpal su
Kab Ã¨h
ulur Ã©
Ã©b asan
Ġkaj uwaraan
ĠAnd erson
Ġdin yat
Ġkan al
Ah mad
Ġur ban
ĠBel anda
Pro d
Ã¨st u
Ġmut usaken
ĠMat t
Ġdipig unaakÃ©
Ġgay ut
ĠDar win
ĠMak edonia
Ġsadh uwurÃ©
Ġpakar yanÃ©
ĠAri fin
ĠÃĪ lmu
Ġukur anipun
Ġmili ar
ĠBis ma
ĠKej u
Keb umen
Ġkawigat osan
ĠHad iningrat
teri or
Ġditr apakÃ©
Ġspesi alisasi
ĠLin ux
ĠTal un
ĠHid ayat
Ġmand eg
Ġne ut
Ġkekar epan
Ġdilak okake
ilo gi
ĠKil Ã¨n
Ġprat amanÃ©
ĠQue ens
Pend idikan
ĠRy ukyu
ĠHi ros
Ġmujud aken
Ġdipunpit adosi
ĠVene zuela
Ġpanelit Ã¨n
Ġtort illa
A K
A v
A las
A cara
B ung
C ip
G eg
J ambu
M P
M ari
O k
T omat
b k
b oy
d it
d el
h Ã©
k ec
l aw
l ika
m id
n angka
p ot
Ġs ata
Ġs Ã¨t
Ġs oto
Ġp angkal
at istik
Ġl ada
Ġl umba
Ġm ajeng
Ġm ejahi
in as
in isi
ik ol
ĠK angge
Ġb ungkus
ĠS isih
ĠS rengÃ©ngÃ©
ĠP angkalan
Ġw Ã¨b
it ul
do la
Ġng onsumsi
Ġng iringi
el ajah
ĠB ert
ĠB ahasa
ĠB ST
ĠB ologna
ĠM ekar
ĠT han
ĠT anduran
ĠT eweh
Ġ" ,
Ġj alan
Ġj ilid
ĠD y
ĠD eb
hi b
Ġr ez
ĠN ad
ĠN yi
ĠL ahat
angg ungan
ĠH ip
ĠH ans
Ġf al
Ġkap eksa
ĠF on
rov e
Ġdip eksa
Ġdig iling
Ġin fr
angk ing
angk ut
Ġdit aw
Ġdit et
Ġdit onton
Ġkar ep
ern i
ĠKal ang
Ġpang har
eri or
Ġ6 9
ĠMal aya
Ġat ur
Ġsek uthu
wa os
Ġkag et
unt uh
pr esi
Ġber g
ĠBat ara
Ġ/ &
ogra fer
Ġpel em
ĠTim e
ĠPro yek
af f
ĠPar aga
Ġkes atuan
ĠX V
ĠX VI
ko ta
Ġrum aja
ĠPan alit
à¤ ¤
Ġam al
ekar angan
Ġjudhul e
ĠAir bus
ĠWar na
ĠSup aya
eal th
kop ol
á¹ ĩ
Ġ189 8
Ġgay utanÃ©
ĠÃ©w oning
ĠUr sa
ĠTul adhanipun
ĠÃ¨t nik
Ġwat uk
ĠAst ina
ĠRot terdam
Ġder ajat
sek olah
Mal aysia
Ġngenal akÃ©
ĠSit ub
Ġngumum ake
Ġstrat egis
Art ikel
ograp hy
ĠAut obot
Geor ge
Jos eph
Ġsign ifikan
ĠSido arjo
2 50
B I
B um
B atur
D istrik
K im
P ej
P ring
P ada
T ari
W a
W orld
b or
e he
f Ã¨k
g Ã©
j uru
r est
r atu
r ene
s ana
É Ľ
× ķ
á Ģ
ing a
Ġs utradh
Ġd uk
al k
Ġm erah
ik Ã©
Ġt undh
is u
ĠK ari
ĠK emp
Ġb uka
Ġb enang
ĠS eng
ĠS ima
Ġdi ukur
Ġdi latih
aka wan
Ġng anggit
Ġng unjungi
ĠB erb
ĠM acan
ag Ã©
ag es
uk tor
ap en
ĠD wi
ep en
ĠC ik
Ġc urah
ĠR esearch
ĠG on
angg aran
ĠH az
ĠH yd
Ġdipun masak
tan bul
andh ak
Ġpr ilaku
ĠDh arat
Ġpan ampa
Ġdib al
Ġses ulih
Ġpeng antÃ¨n
Ġpam ilih
ĠSal eh
Ġtel uk
Ġsp ek
Ġkep engker
Ġdil arang
enc er
ĠNg antos
ĠMan ila
ĠTim nas
Ġpeny iar
Ġdikenal ake
Ġsang at
Ġset uju
ĠAk hir
inc ol
erm in
Ġmak mur
Ġmed ia
Ġkej aba
ĠKom andan
Ġgeg aman
Ġist imewa
As ma
197 9
Ġmeng eti
Ġseri us
adah ab
Ġe uka
ĠUr uguay
ĠBur ma
Ġbapak nÃ©
Sp esies
impi adhe
ĠSat unggaling
ektu al
akas mani
Ġi dhÃ¨n
kul asi
ĠLib ya
ĠKaw it
ĠNam ung
ĠWh it
Men ara
ĠÃ¨ks prÃ¨si
ĠTet uwuhan
put ih
Ġbedh ah
ĠKebon agung
ĠShar p
Ġkendh araan
ĠMeg awati
Ik lim
Ġnimb ulakÃ©
Ġngilang akÃ©
ĠpÃ©ri odik
Ġra osipun
TÃ© yori
Ġpangert osan
ĠUmb ul
Ġditemt okakÃ©
Ġkalk un
ĠFried rich
ĠDoug las
serv atorium
Ġromb ongan
A keh
C at
D al
D er
F il
J on
J ac
R ah
R umah
R adÃ¨n
S n
T ata
T Ã¨ks
U I
j aran
n agari
p emb
r upa
t okaken
w at
z z
Å ļ
Ġ ijin
Ġ oc
Ġ Â°
ing gih
ar ukan
Ġp olo
Ġing kan
ik ine
Ġt amat
Ġt anganÃ©
Ġt atanan
ur akÃ©
Ġn urut
ĠP ilipina
ĠP uff
Ġw awancara
or ganisasi
ĠB aj
ĠB ub
ĠB asil
ĠB ugis
ĠM ai
ĠM unt
ĠM its
ag na
et na
ĠT atar
Ġj urnalis
asi lan
ĠN BA
ĠL angit
ĠW angun
ĠC u
ĠC ampuran
ĠR NA
ĠG re
ĠH ed
isi ologi
anj en
isa i
amp ton
Ġny urung
Ġdip ungkasi
ĠO ut
Ã¨l Ã¨h
int h
Ġdit uturakÃ©
19 60
Ġpan Ã¨n
odh ok
Ġ18 80
Ġsar wa
Ã©nt ahan
Ã©nt ukakÃ©
eri e
Ġker eta
Ġat lit
Ġlum ut
ĠZ ul
mi e
Ġun ta
ĠAd onan
ĠAs ahan
Ġpem an
Ġpem ukiman
Ø§ Ø±
Ġadh ine
Ġkol om
Ġdim upangat
asti an
Ġop er
ĠNew ton
ĠTur k
ĠKarang p
let ic
Ġpand an
Ġmem iliki
Ġwern anipun
Ġtig an
ĠHe av
Ġus unganing
196 7
Ġreg ane
Ġpedh ang
Ġlar va
ory eo
Ġras ukan
Ġancas Ã©
ĠKej aba
Jat is
abil itas
Th omas
put r
Ġtump ukan
kaw inan
Ġreli ef
ĠWi el
Ġperl indungan
Ġakadem ik
Ġgant osipun
Ġnemb us
Ġkawonten anipun
Ġleb ih
Ġstrat egi
ĠAug ust
atri um
ĠCant ona
olk lor
Ġinteg ral
ĠIA IN
ĠMÃ©t z
Ġcak ram
Ġdiperl okakÃ©
Ġatmos fer
ovan ni
ĠkÃ©l angan
ĠLaz io
ĠShang hai
ĠgegandhÃ¨ng an
' t
B ib
B apak
C hi
G P
G el
P in
R antau
S it
S har
T embang
U R
b ola
e el
i Äĩ
j ie
w erna
Å ¾
Ï Ģ
Ġ Ã¨ng
Ġs antri
Ġp rigel
Ġk sat
si nÃ©
Ġm ec
Ġm eja
Ġm Ã©kan
am aya
am ata
ik su
Ġt ang
ĠK adipat
ad as
Ġdi ten
ĠP or
do do
Ġng angkud
ant es
ĠM ojok
Ġg ua
ĠT il
ĠT rip
uw arga
ol itik
eb i
Ġr enang
ih ara
ĠL iv
ĠL omb
ĠW u
ĠC iri
os al
os obo
ĠG ambar
Ġkal ima
ed ah
ĠF u
ĠF air
ent s
ent an
ip ura
ĠO nt
ĠY us
Ġngg ampang
Ġsa Ã¨ngga
end ah
Ġsaj ak
ĠPr ess
Ġnd elok
ib o
art ikel
ĠV is
ĠV incent
uwur e
Ġpen utur
ĠPer kara
Ġnj eron
Ġkon dhisi
Ġan al
omp a
Ġdik ukus
Ġsap Ã©rang
Ġngr um
Ġker abat
ĠWal ter
ev en
ĠGr eg
ĠGr egori
Ġsep asang
Ġpar tai
ĠSur y
Ġkep entingan
if inal
Ġun dhak
ith akan
Ġdid elok
Ġwad itra
ĠKab upatÃ©n
ess y
In stitut
inc l
ê§ ī
ĠTr in
ĠMad agaskar
Ġdisi naoni
Ng l
Ġmat eni
Ġkej uaraan
Ġtahan an
umbu i
Ġsir kuit
ĠWar ung
Ġ0 2
oli Ã¨re
Ġ189 4
Ġanc aman
Ġmik roskop
ĠPers erikatan
rong gongan
ĠJum at
Ġlemp eng
Ġnged alaken
ĠGir ls
ĠHot sp
Ġpek en
Ġnampil ake
Ġpew arna
Ġbangk u
Ġnjl Ã¨ntrÃ¨hakÃ©
AmÃ©rika h
Ġsint esis
sad urungÃ©
ĠOri on
Ġjend eral
ĠRÃ© volusi
Boj ong
ĠKai ro
ĠToy ota
Ġrad ikal
Ġmust ar
Ġlas er
ĠLab uan
Ġbib it
Kaka win
byg da
ĠpÃ¨ng etan
Ġdilair akÃ©
ĠTuh up
B ant
B et
B ud
C or
G B
G em
G ondhang
K ec
L and
L ambang
M od
N E
N i
S astra
T H
b Ã¨nten
f u
k umpulan
o kÃ©
s anÃ©
t ul
v ersi
Î ¯
Ġ Û
Ġ arÃ©
Ġs rengenge
Ġk ebut
at re
in ho
on en
ik anan
ak us
ah aman
Ġka aran
ĠK ek
ĠK anan
Ġb undh
ĠS aya
ĠS ean
Ġn ep
Ġdi as
Ġdi asin
ĠP rov
Ġw ijinÃ©
Ġng obong
ant Ã©
ant ha
ĠB umb
um ur
ĠA do
ĠM ig
us Ã©
us kupan
Ġg em
ĠT ow
ĠJ apan
Ġr endheng
ac c
im eter
ĠL S
ĠIn n
angan om
ĠG urah
ud ian
ay er
Ġkal awau
Ġsal awasÃ©
Ġper jalanan
any atan
ic ia
ig ra
ĠO d
eka tan
Ġdit abuh
he a
he e
ĠV ie
man uk
Ġkat alog
ast is
est arian
ert ebrata
Ã©si es
Ġsab uk
ĠBr awijaya
Ã¨t ri
Ġpar ut
Ġpar kir
Ġ9 1
Ġter j
Ġdil apor
Ġangg itan
ĠAs osiasi
Ġpel ajar
ĠKap ol
Ġpap ak
undh utan
ĠPat ih
Ġkons Ã¨r
Ar mada
Ġpit ulung
Ġpin aringan
Ġpak umpulan
ĠBay er
ĠBen ediktus
Ġment al
Ġpand angan
Ġten anan
Sumber eja
ĠBas uki
ĠUr ban
ĠNob ita
Ġnggabung akÃ©
ĠAri zona
Ġ188 8
ĠHal im
Ġngandhap ipun
Ġ187 8
Ġnit rogen
Ġdo dol
Ġperm ukaan
Ġdika sil
Ġdisebut akÃ©
Ġdur Ã¨n
ĠAnth ony
ĠFi or
Ġpangert Ã¨n
Ġdiluncur akÃ©
Sul awesi
ĠEc onom
Ġpreka wis
ĠBola ang
ĠHow ard
ĠHung aria
Ġcac at
ekom unikasi
ĠOstr ali
ĠAfghan istan
C a
M is
N ar
P ersi
R J
W erna
h yang
h wa
s erat
t ani
w uni
Ġ Ú
Ġ av
Ġs ma
Ġk g
Ġk endhang
at ed
Ġl ami
Ġm ode
Ġt awa
Ġt embangan
ĠS I
ĠP ay
ĠP asir
Ġw yanjana
aka mb
ĠB enteng
ro gr
ĠT ana
ep akatan
ac un
ĠL imp
ĠW ater
Ġc rit
ĠR ang
adi um
ĠH erm
ĠH ubungan
ĠF all
amp ingi
Ã©r gi
Ġny ingkir
Ġsal am
op p
op en
aken i
andh Ã©gani
Ġak ut
ĠO bat
Ã¨k tif
ĠAm as
Ġdit uj
Ġpro per
he on
ĠV ik
Ġpen ampil
ane h
ĠDh Ã©wan
engk uh
ĠPer m
ern e
Ġkr Ã©
ĠAl f
ĠAr go
ĠCh il
ĠUn ivÃ¨rsitas
ump angat
ĠMal ay
ring an
Ġ7 9
Ġbaka lan
Ġst Ã©r
Ġter atur
Ġter itori
ĠKr im
Ġpas al
ĠAs asi
ond i
ill o
Ġ11 2
Ġkam ampuan
Ġsem inggu
anten an
form ers
Ġpol imer
Ġnduw Ã¨
ich ard
Ġpemb entukan
ĠEn dhog
Ġsed ayanipun
ĠKaj oran
stit u
Ġkembang Ã©
Ġlew ih
Ġmon umÃ¨n
ĠAnd y
ĠKon ferensi
Un ited
Ġbl og
ĠKet apang
ĠMen awa
Ġseg it
Ġseg awon
Ġ190 2
ĠPel abuhan
Ġis otop
Ġcendh ek
196 9
ĠAz iz
Ġsah abat
ĠBag h
Ġgal ur
mur id
Ġngad epi
Ġpunjer Ã©
ĠPanc asila
ĠChris ye
ashi on
Ġtemb ok
Kaj aba
Ġditr apake
ĠJer uk
Ġdiasil ake
Mus Ã©um
ĠGand rung
Ġmo yang
Ġdumad inÃ©
ĠHon da
ĠÃ©m osi
ĠRej ang
Ġdihi asi
Ġmancan agara
Ġdisiyar akÃ©
ĠNorweg ia
Ġasis ten
Ġdeka de
6 3
B ed
C i
D j
F asilitas
H ab
K ath
M angun
O H
S eni
T Y
Z uid
h ab
j ir
m asi
n ica
r aksi
w urst
y ama
à ¹
Ī Ĵ
Ġs eda
Ġs orÃ©
on dow
Ã¨ ju
ak ta
Ġka ta
Ġka iket
ĠS ita
Ġik an
ĠP y
ĠP la
Ġw Ã©s
Ġng godhok
ĠB re
ro h
ro ti
ĠM ind
ĠI van
Ġg u
ĠT s
ĠT hi
ĠT oh
ĠT itan
ir iman
ĠJ ek
Ġj upuk
ih ari
Ã©n da
ĠN ations
ĠL ukisan
ĠC ah
ĠC alon
ĠC itr
Ġc erah
eg on
angka s
and ina
Ġkal uwar
Ġkal uwihan
ĠH un
ok er
ot ipe
Ġsak idul
amp Ã¨l
Ġor nam
Ġsaw it
andh an
ig e
ĠE ff
esi um
angk rik
Ġkar tu
ĠPer l
ĠPer ak
ken s
ĠAl an
Ġpang uw
Ġpan utur
Ġ4 50
est ra
omb Ã¨n
Ġsek ti
ĠSt ock
ĠSt ory
Ġlum ampah
mp h
oy ok
Ġpar al
Ġun dh
ill y
Pr Ã©sidhÃ¨n
ĠPro ject
Ġamb unÃ©
rip si
Ġsel at
eral d
ĠLi on
Ġmul ti
Ġkeb un
Ġlim rah
Ġbag us
Ã¨nsi n
ĠBab el
Ġpet ernakan
Ã©h ak
Ġdin as
oba an
197 2
Sa punika
Sa Ã«
Ġkand ung
ĠBag ong
Ġngalah aken
ĠSeri es
ĠOb ama
ĠWoh Ã©
Ġnyrit akake
Ġangk udan
ĠJen ar
ĠFo und
uput ih
ĠTemp o
Ġkun ir
ativ itas
Ġkre atif
Ġuc ul
Ġminim al
ĠAntoni o
ĠFerr ari
ĠKonst antin
Eric sson
SaÃ« ns
' -
A P
J ogÃ¨d
P ed
R ikala
S ud
T ab
V ol
V ic
W iwitan
] ,
g us
h or
l eng
m angsa
s z
s Ã©s
ka dhang
Ã© ologi
Ġs arÃ©
Ġs anginggil
Ġd Ã©s
Ġp H
Ġp on
Ġp Ã¨nsi
Ġp angkalan
Ġp Ã©tungan
Ġk anji
al anÃ©
al bum
Ġl ogo
Ġm Ã¨t
Ġm ono
Ġm asih
Ġm ambu
in um
in ema
Ġt amb
is akarida
ĠK uba
Ġb h
ĠS ta
ĠS ocial
Ġdi kat
ung ga
ut ake
Ġw atang
or ado
do u
Ġng ag
ĠB ath
ĠB Ã©da
ĠM isi
Ġg adh
ĠT ro
ĠJ ennifer
awa y
Ġj udul
ĠD ebut
Ġr ej
ĠL od
ĠC em
ĠG alis
ha o
ha z
ĠH ut
ĠH em
Ġsak p
ĠF an
Ġny awa
ĠU la
ip s
Ġpr e
anc ana
ĠY uan
ĠAm az
Ã¨r u
Ġnd adÃ©kakÃ©
Ġkas et
man uel
Ġaw erna
Ġnj eronÃ©
Ġpang uc
Ġan alog
Ġkl ad
embang aken
est h
Ġmas ter
Ġdib udidaya
eni x
Ġpam er
ĠIs land
ĠSt andar
Ġdic ar
ons o
ons trasi
ĠSaw etawis
Ġpas ukan
ĠAb i
Ġpel aksana
Ġkom entar
Ġumur ipun
Ġangka t
Ġsas aran
undh akan
Ġbiy asanÃ©
Ġpemb erontakan
ĠHar ris
gay am
ĠÃ©k onom
ĠSad erengipun
Ġpep utra
ĠBab ilonia
ĠKas h
ĠGar y
ĠBi ro
Mar g
under land
kas us
Ġnyebar akÃ©
rak ir
ĠHe art
196 8
Kali b
agem ent
ĠDo om
ĠJam al
ĠMong ondow
adir aja
Ġbany ak
evel op
Ġstat istik
Ġkontrov ersi
ĠCam eron
Ġmanc ing
Ġgin anipun
ĠHij riyah
ĠCarol ina
Ġmun isip
ĠJatin egara
ĠJami e
ĠMargar et
Ġtong kat
Ġkob ongan
Ġkalam angsa
Ġresm inÃ©
ĠKoordin ator
ĠstÃ©r Ã©o
B atang
G un
M ich
k ej
n ama
p ul
t asi
Ï Į
Ġ anj
Ġs ung
Ġs ore
Ġp las
en na
en berg
Ġl am
Ġl ali
Ġm uni
am erta
on da
ak anipun
Ġt indh
Ġt rig
ĠK ard
ĠK eth
ur aken
ad ra
ĠS oka
ĠS hip
Ġn urun
ĠP isanan
Ġng ej
ro ck
ĠT ing
es ep
ol is
ĠD Ã©wan
eb a
ĠN ga
ĠL ang
anÃ© h
ĠW ij
ĠC ra
ĠC aranÃ©
ĠG oryeo
emb agan
ri el
ĠH anyar
Ġkant ong
Ġf auna
ĠF em
Ġor i
ĠU K
tr ess
ti b
Ġas ri
amar ga
Ġpr Ã©ntah
ej arah
ĠY aman
Ġngg eg
end aris
angk o
Ġdit awani
uran si
Ġmb uru
ug awa
umb uk
engk o
Ġpan atacara
odh o
da an
est antun
Ġdik en
Ġdik unjara
Ġdib umbui
ump at
ĠBr un
Ġat us
ĠÃ Ĺ
Ġbakal Ã©
Ġber j
Ġdipunp irsani
Ġir ama
Ġdij urung
ĠKap al
Ġsem esta
Ġsel a
Ġkol esterol
Ġlap uran
ĠTr un
ĠPut r
Ġê¦ ¢
ĠBul uk
sik lop
Ġtugas Ã©
ĠSw ara
Ġpot Ã¨nsi
Ġsandh uwurÃ©
ĠBu ff
Ġpedh ot
ĠKomp eni
dr um
ĠMor gan
ru hi
Ġngend ikan
Ġngingg iling
Ġspesi fik
ĠJon athan
Ġkot amadya
Ġnerbit akÃ©
igur asi
ubis hi
ĠKeka lihipun
Ġnyam ikan
Ġngob ati
ĠTaj ik
Ġhubung ane
ĠPremi er
ĠTerb uka
ĠBot ani
Ġkontempor er
jem ahaken
Ġseku ens
ĠLig ue
mais uri
Ġiri gasi
ĠDury udana
incl ude
B M
B aj
D ong
H as
J ohan
L okasi
T emb
U lam
b es
g awÃ©
j amin
m aya
n ang
n or
s anipun
s burg
Ġ amat
Ġ Ã¨w
ing rat
ka dos
ar n
ar ahan
ar no
Ġp eksi
al ti
en ol
Ġl ent
Ġl onc
Ġm uja
ak wa
Ġt ot
Ġt ib
Ġt anduk
aw ahan
ĠK elly
Ġdi anggit
ĠP aj
ĠP asa
Ġw ijen
ya b
Ġng udh
Ġng eter
el y
ĠM ain
ĠM oj
ĠM ila
ĠM oliÃ¨re
ĠI jo
ĠI pin
us ka
ĠT O
uk sÃ¨s
ga ya
ĠD er
ĠD et
ĠD ib
ĠD ream
Ġr at
Ġr Ã¨l
ih arja
ĠN ow
ĠIn formasi
id at
ed it
ent ral
ew as
ub i
tr in
uj ug
Ġpr ih
ĠO rig
Ġal p
Ġngg at
Ã©tan ol
âĢ ĺ
ib atÃ©
Ġdit ud
Ġant ologi
osi n
isih an
Ġpang adilan
Ġpan emon
Ġpan liti
est e
Ġsar on
ĠCh amp
Ġdib ed
Ã¨ng k
ev asi
unt un
emen Ã©
ĠKr amat
Ġmal am
Ġdipunp Ã©rang
ĠSel asa
ni awan
Pr aj
Pr astawa
Ġpat ut
unj ang
Ġmar mer
Ġhi asan
Ġpol os
ĠX i
ĠØ ¬
Ġke agamaan
Ġnjal in
ĠMad e
Kal ig
Ġmul ya
ĠÃ¨l miah
enggara an
ĠPeng adilan
oksi n
Ġfil um
Ġpasar Ã©an
Ġradi asi
Ġ190 5
ĠOl imp
yn t
Ġsangisor e
ĠHe in
ĠBur uh
Ġek spor
ĠTul isan
Ġnggabung ake
burg h
Ġtop ik
Ġinter ior
Ġpart isipasi
Ġneg ri
Ġdipunj angkepi
Ġsew elas
ĠProd uk
Ġnang is
abet es
ĠGedh ong
Ġhip ot
Ġkaf e
Pi ala
ĠTangg amus
ĠSuz uki
leb ee
ĠWib isana
ĠStan ford
ĠKalij aga
ĠEug ene
ĠKast il
Ġjama ah
ĠSlow akia
ĠHotsp ur
ĠVie ira
B ro
E P
L embaga
R am
R aj
S alam
W ik
Y unani
c c
d es
f ungsi
k ong
l ikan
m iyah
r eh
z ig
Ã ¹
Ð ³
Ù Į
ang enan
Ġs ug
Ġp ath
Ġp ambar
Ġp ekarangan
Ġl i
on in
on tan
ak um
Ġka amanan
Ġka endahan
ĠS ey
Ġn eka
Ġn unjuk
ĠP opul
ĠP KI
Ġw alang
em adeg
eng reja
pun i
ab ria
Ġng operasi
ĠB T
ĠB ek
ĠB int
ĠB obot
ĠA vi
ĠM eh
et to
Ġg ronggongan
ĠT on
ĠT uc
ĠJ amb
ĠJ urnal
uw ene
ol ga
Ġj ujur
ĠL ok
ĠL incol
ĠC agar
Ġdh Ã©mokrasi
Ġut amanipun
Ġkal eng
Ġkal odh
Ġdipun atur
ĠF el
ĠF ree
Ġny usul
ip ang
og le
uj ak
Ġak un
ungg alan
Ġdip adh
ic ester
Ġman ual
ec ikan
angk il
ĠDh Ã©pok
ow ice
Ġwar alaba
Ġngl amar
Ġngl arang
tu al
Ġar e
Ġpeng an
Ġad atÃ©
Ġpam ukiman
ĠIs tanbul
Ġat is
pr et
ne o
uni sia
Ġber kah
Ġter as
ord on
Ġnam e
Ġpel uru
ell es
Dh ukuh
Ġdamel an
Ġcar kak
ĠSan s
Ġul er
ĠKab eh
ĠBany umasan
ĠSing asari
Ġkes ehatan
ĠUt sman
rad e
erm ain
ĠPan as
elas akÃ©
Ġmir eng
ĠBer kel
ĠSy ams
per lu
ĠTel aga
Ġseg anten
Ġmel on
Ġngel ing
Ġgegay utanipun
Ġis u
Ġbentuk e
bi asane
Ġbay em
196 6
Ġvan illa
ĠHind u
ĠPes antren
Ġbot ol
Banjar sari
Ġref ormasi
Ġnel iti
ĠHard y
Ġdibandhing ake
ĠId ris
Ġgraf is
Ġlal ad
Ġmbah as
Ib nu
Ġdimang ertÃ¨ni
ĠBeg awan
icip ality
Ġsatengah ing
Ġwic aksana
ĠAnim ation
Ġdikab arakÃ©
Ġgluk osa
Ġpakul inan
Ġsitu asi
andina via
1 20
; "
D enis
L ong
O ktober
R eg
R ichard
T T
U D
W h
W ekdal
b ir
b anyu
d ur
g ang
h ot
j v
k ont
o z
r itik
r Ã¨si
s ell
t ri
v at
y uta
an us
ka i
Ġs erang
Ġd amai
Ġp ocapan
un it
en em
Ġl estari
Ġm uk
Ġm ucal
am mar
Ġt andur
Ġt erbang
ĠK it
ur agan
Ġb udi
ĠS usu
ĠS underland
Ġdi ajak
ĠP osisi
ĠP agar
Ġw i
or ang
ab ak
Ġng ungsi
Ġng usir
ĠB uru
ĠB unga
il ikan
ag li
ĠJ ud
ĠJ Ã©ndral
Ġ1 19
uw et
Ġj eb
ĠD idi
ĠD ublin
im inasi
ĠW ho
ĠW rit
ĠC abang
ĠR ara
eg as
Ġdh aftar
id an
ĠG ay
ĠG aris
ed s
ri wa
ĠH et
ĠH uruf
ent ahan
ent rasi
Ġsaw i
Ġper al
ti adat
uj ung
Ġpr Ã¨stasi
ĠE ver
ĠO mah
Ġal ga
end s
Ġsaj umlah
Ġh obi
Ġpro sa
ist ira
ĠDh ani
ĠPer kawis
uc ang
Ġpang er
ĠAn at
ĠAn to
Ã©ng an
Ġker ing
Ġker ajaan
Ġar dhana
Ġpeng elola
Ġtr ag
ers ari
irang i
Ġkag esangan
ĠKar angg
Ġket umbar
Ġ/ /
ĠSp ace
ĠSem angat
Ġdij angkepi
Ġlel akon
Ġ11 3
Ġsem ak
Ġsel aras
ĠPi et
erm Ã©
ĠtÃ© mpÃ©
Ġam ong
ĠJoh ann
ĠSam ud
ĠKom ando
Ã³ r
ĠKam er
Ġtran sisi
Ġsir ahÃ©
bo x
ĠKarang tengah
As em
akt ik
Ġkont eks
Ġpl abuhan
Ġrasi o
ĠAp ple
ĠWil d
hy angan
ĠLa ok
ĠPurw akerta
Ġuw uh
ĠKer ajaan
Ġ189 2
ĠAnt ara
Ġakting Ã©
Ġform asi
Ġdidh apuk
ĠNi u
ĠTok ugawa
ĠEm ily
Ġdhew ek
Ġdhew Ã¨kÃ¨
âĢĭ âĢĭ
Ġnyat akake
ors al
Ġsemp it
ĠMir za
ĠFlor ence
Sem arang
Ġintern Ã¨t
En dhog
Sum ur
Ġnemt okaken
ĠSes arengan
ĠAth letic
ĠLar angan
Pers ero
ĠWi dodo
ĠIsi nÃ©
ĠNic olas
Ġperson el
Ġroh ani
sist or
á¸ į
Ġmekan isme
aci onal
Ġdipunsi mpen
ĠnÃ© tral
ĠMid d
Ġditayang ke
ophy ta
Ġsanj ata
ĠPrinc e
cast le
Ġvert ikal
Ġnyedh aki
dic ekak
gani zation
Ġudh ara
Ġotor itas
ĠKazakh stan
ĠAutobot s
ĠGregori us
Ġproper ti
= |
B es
C it
D adi
E mp
L ok
M upangat
P ek
P rovincia
S H
W ah
b enda
l om
l ast
l angga
n j
o uri
u es
w ates
w ijaya
z Ã³w
Ø ¶
an agara
Ġs ifat
ar aton
Ġd inosaurus
Ġp ai
Ġp Ã©ta
si sa
er ra
Ã¨ di
Ġka urmatan
ĠK ira
ĠK unduran
Ġdi eja
ĠP up
ĠP arang
Ġw af
ul ah
ab us
ĠB om
ĠB iz
ĠB apake
ĠT w
ĠT aka
ĠT itik
ol ution
Ġj as
ĠD inten
hi as
ĠL imb
ĠL ive
ong p
ĠW idi
ĠC atal
ĠC ru
Ġc i
eg ar
Ġkal ori
ĠH ajar
ot asi
isi m
Ġf ung
tan s
ub in
op ean
Ġper p
Ġper wakilan
og urt
uj ana
Ġas esirah
Ġsa ing
art e
Ġdit ahbis
ĠDh oktor
Ġaw on
gr Ã©ja
uc ky
ĠAr d
Ġpang alaman
ĠAn us
Ġpan ambang
Ġngl ewati
Ġan akan
Ġab s
Ġning rat
ch ar
re asi
oni f
oro go
und am
Ġtel a
Ġtel ur
ĠZ Ã¼
Ġber juang
Ġket at
Ġmal ahan
Ġdir ebut
Ġdir encan
enc y
Ġbi okimia
Ġdipunp angg
era ih
th ora
Ġdid amel
Ġlor onÃ©
Ġsem ifinal
ĠX I
aus astra
to zoa
Ġlap oran
ĠPanjeneng ane
ĠBal ik
à¤ ¨
Ġpamb abaran
Ġprod usen
ĠCar ter
Ġart ine
ĠSak ti
Ġz iarah
per ia
Karang reja
ĠPeng etahuan
Ġkil ogram
Ġpingg iring
Ġgen us
alu asi
Ġmut u
Ġgegay utanÃ©
ĠMo ore
ĠHam zah
Ġbentuk Ã©
Ġdipunc ampur
ĠKo ala
Ġnyebut ake
Ġim un
Ġpenerb it
Ġngandhap ing
Ġnil ar
kl ub
bar amp
ĠHer ak
uf aktur
pro gram
ĠTir ta
Ã¡n h
Han acaraka
Ġcangk ir
Ã¦ r
Ġkaprig el
Ġnerbit aken
Ġlib eral
ĠLaks amana
Ġdiresm Ã¨kakÃ©
ĠAnj ani
Ġbok manawa
ĠSis wa
ĠBedh amÃ¨n
ĠNet work
ĠAnthrop ology
romagn etik
Ġasist Ã¨n
ĠPrad esh
ĠMojok erto
evelop ment
( "
B udaya
B uda
E k
K adh
L S
M un
M iss
P ort
P usat
R as
R oy
S ala
T itik
b ell
d um
d ata
d amel
g or
h r
h is
w ijk
y Ã¨n
× ¨
à º
ä ¸
Ġ #
ka loid
Ġd ua
Ġp ilih
Ġp idh
Ġp ublikasi
un ake
Ġk od
si de
Ġt Ã©l
Ġt Ã©k
as ring
ur uhan
Ġn abuh
Ġdi et
Ġdi ombÃ©
ĠP ela
ĠP esisir
Ġng is
Ġng Ã©l
ĠA ti
us sel
ag ina
et akan
ĠT ulis
ir ingan
ĠJ uwana
uw Ã¨ni
Ġj enjang
asi ya
Ġr ame
ep e
Ã©n ak
ĠN el
ĠL er
ĠL ac
ĠW ana
ĠW iyata
Ġc Ã¨t
Ġc idra
atan e
ĠG ra
ĠG andhi
emb ag
ok ol
Ġdipun pundhut
Ġf ik
Ġf ir
ĠF ah
ent ri
amp urn
Ġny andhang
Ġper ka
Ġpr imer
ĠE sp
ĠE ko
ĠO lah
ĠY i
Ġal ur
umb as
Ġkat onÃ©
Ġnj amin
Ġpang ukuran
19 50
Ġ18 2
Ġdib utuhake
ĠMar kus
ĠMal am
Ġ7 4
ĠGr ace
Ġst im
Ġdic rit
Ġber m
Ġdil indhungi
Ġdipunp ar
uri ga
Ø§ Øª
ĠKeb o
all ow
ĠSh into
ĠMin ang
Ġsel ir
Ġmig ran
Ãª m
ĠX peria
se in
eks ana
Ġpit ulungan
ĠØ Ń
ĠGro gol
erus Ã©
Ġmon c
Ġmon arki
ĠWar ner
ĠAp pa
ĠWiwit an
Ġth ok
ĠBi ak
ĠTel ung
Ġjej eg
ĠKur ang
ĠKer inci
let on
ĠSen iman
Ġmel uni
ĠBe at
aban ing
ĠDav is
Ġkuwat ir
ĠAri f
Ġbar isan
Par tai
mo en
Ġped amelan
ĠEm ilia
Ġram uan
Ġcet akan
Ġlawas Ã©
ĠVal ent
Ġkos ok
ĠFrank lin
Ð¾ Ð²
Ġsy uting
ĠGol kar
Pem ain
fil aksis
Ġtump eng
ĠSip rus
ĠPungkas anipun
ĠDol anan
Ġlip id
Ik lan
ĠAstr agara
ĠQue en
Ġjen uh
Ġintel ektual
ĠrÃ©k or
Ã©f Ã¨ktur
ĠHamb urg
Ġnand atangani
ĠdiwÃ¨nÃ¨h ake
Ġpoh ung
ĠBagh dad
' m
B un
B andar
D om
D ip
I mp
M oj
M Ã©t
P B
S ekar
T O
W iyata
a usan
b et
d s
d t
d il
d iw
g olongan
k n
k iyah
l ock
l ight
p m
r ani
t d
É Ķ
Î ³
Ï ī
an anÃ©
ing go
ka lan
Ã© kakÃ©
Ġs engk
Ġp ij
Ġk oki
Ġk ripik
Ġk ostum
en ah
Ġl engk
Ġm ecah
er et
Ã¨ yan
Ġt eri
Ġt umpang
as us
Ġb ara
ad ireja
ĠS andra
ĠP aw
Ġw asit
ul ata
ab eau
dh Ã©n
Ġng unjuk
ant ungan
ĠB um
ĠB arang
il it
ĠA L
ĠM asa
ag edhÃ©
ir on
uk ut
uw eng
uw ari
ĠD unungÃ©
Ġr ambat
ep tic
ĠL ittle
ĠW uruk
Ġc omp
Ġc ucuk
Ġc itra
ĠR av
os anipun
ĠIn tel
amb ul
ay udan
Ġkal akon
ĠInd onÃ©
Ġf antasi
edh ah
ip ei
Ġper janjian
Ġper pustakaan
og lob
anc er
ĠY our
Ġal amat
int eg
ê¦ ĥ
inis me
Ġkab uka
la in
Ġh eter
ug ar
ĠV ariasi
umb lÃ¨k
ĠDh istrik
Ġkat hi
eron cong
ov ern
iv or
ind ahan
Ġpang l
ja an
da ftar
Ġsad anguning
Ġan us
Ġab adi
Ġmas sal
ard ia
re as
Ġar ab
ira an
ĠMal o
urip anÃ©
ĠBr and
Ġsek si
Ġkep r
Ġkel akon
Ġbeb as
Ã¨si s
20 20
Ġtul ung
ĠSo eg
tiv ar
erm at
Ar j
Ġop osisi
mar hum
Ġsuw enÃ©
Ġpin us
SM A
Ġsub tropis
ĠPas ha
ĠKarang s
II I
Ġbl anja
ĠTel kom
Ġuw it
Ġdipunr ancang
Ġko in
Ġ190 4
Ġ40 96
Ġes ai
Ġvari abel
Sp anyol
Ġtrans g
Ġninggal akÃ©
Ġlar angan
dr us
ĠRah man
ercaya an
Ġfinal is
Ġkanc anipun
Ġsl ira
Sum atra
ĠHid up
idin akÃ©
Ġend emik
ĠLel ara
Ġberk embang
ĠPu erto
Ġeksp erim
ĠGot ama
Ġmikro organisme
Ġjurnal istik
ĠGram my
ĠRiz al
Ġtun as
Ġpreka ra
ugrah i
Ġdiuc apakÃ©
astan an
Ġpambront akan
ĠKalig esing
Ġdipuntem tokaken
TM L
Ġkewarganagara anÃ©
Ġpasur yan
Ġresis tive
ĠKenn edy
Wedh aran
Ġsif atÃ©
Ġsungs um
Ġsutradh ara
ĠFior entina
ynt hia
Ġkalodh angan
, &
/ &
D aniel
L M
L im
M ont
N ic
R S
S he
T ek
T oy
V ersi
W ER
c le
f li
l ila
m yo
n askah
s asi
t ah
w et
É ª
Ġ owahan
Ġ acar
Ġ angsang
ang ulum
ar ab
ar man
Ġd Ã©wan
Ġp aribasan
Ġk esi
Ġk enal
Ġk wal
Ġl ensa
ak ob
Ġt rowongan
ur ing
Ġb lu
Ġb intik
Ġb Ã¨nsin
ĠS ot
ĠS ai
Ġn at
Ġn as
Ġdi ap
Ġdi obong
ung san
Ġw asis
ika s
ĠB inangun
ĠA er
ĠM im
ĠM erb
ĠM ach
ĠM ario
ĠI N
Ġg eb
Ġg ej
ĠJ ordan
ol ar
hi da
iy en
ep s
om eter
ĠL og
ĠL ine
ĠL av
ĠL ubis
Ġc ir
ĠR T
ri al
ta il
ĠH ugh
Ġkap ungkasan
Ġkap isanÃ©
amp it
ub arÃ©
op s
ip to
ej ahtera
ĠPr es
Ġkar b
Ġmb uwang
he in
ĠV itamin
ĠDh ew
akar sa
Ġpan ul
Ġngl ak
Ġ18 50
Ġro so
Ġdib eb
Ġses orah
ebet ipun
ev o
ĠGr ant
fi ed
Ġber ang
Ġter umbu
ĠSaw enÃ¨h
Ġ17 0
ĠBl ambangan
ĠSa untara
Ã©p Ã©
ungk in
Ġsur uh
Ġpany imp
lin s
Ġrum it
ĠPanjeneng an
Ġmer ak
Ġij rah
ĠKat edral
Ġam f
Ġmr entah
ustr asi
ĠSak uthu
ht t
opi um
Karang sari
ĠWiwit ane
Ġpras ajarah
ĠPurw odadi
ĠKur niawan
Ġsum adya
ĠCl ark
Ġ189 3
ĠKol aka
ĠKol oni
bi otik
osa urus
Ã¶ n
196 2
ĠMul ia
ci us
Ġpanalit Ã©n
ĠSuk oharjo
Ġrep til
Ġkuc iwa
à¥ Ģ
Ġsus ah
ĠSk andinavia
arm asi
ĠkÃ¨ wan
ĠEng land
vik s
ĠKir ana
ĠÂłĠÂł ĠÂłĠÂł
Ġbad anipun
Ġsit oplasma
ĠmratÃ©l akaken
Ġdial ami
akir akaken
Ġnjl entr
Ġrap et
ĠUnivers al
It alia
ww w
ĠFil safat
ĠDI Y
ĠHabib ie
Her zegovina
ĠNich olas
Ġdisilih akÃ©
ĠKod am
Ġrerangk Ã¨n
ĠServ ice
Ġting kah
ĠIbuk ota
ĠGamp engreja
ĠWiel kopol
Ġkebut uhan
ĠFound ation
? "
B ang
B or
C urug
D epartemen
E A
F lor
M ik
N as
R ad
R Ã¸
S ec
d im
h luk
l um
p ara
p rot
r or
t oph
u v
à ²
ka ran
Ġs ter
Ġd alah
at um
Ġl o
si pras
Ġm istik
Ã¨ y
Ġt epang
ĠK andh
Ġb ersi
Ġb ayar
ad aran
ĠS ew
ĠS ura
Ġn angka
ĠP endh
ĠP irang
ĠP impinan
ul ayan
or isme
dh uwur
Ġng or
Ġng ajengipun
ĠB ast
ĠB ack
ĠM onten
ĠM ust
ag ka
Ġg aj
Ġg andh
ĠT es
ĠT uri
ĠT rav
ĠJ el
ol la
ap ar
ga u
ĠD id
ĠD evelopment
Ġr i
ĠL ith
ĠL akon
Ġc ha
Ġc anggih
ĠIn dhi
ĠG end
ĠG amelan
ĠH ib
ĠH IS
Ġmin t
ĠF ish
ub uwono
ĠU SD
op le
ip a
ĠIng gih
Ġas mara
ungg ing
Ġpr esiden
ĠE mm
ĠE ku
Ġal f
Ġal ang
Ã¨r t
ĠPr atama
oh en
ib ri
ib ia
Ġkar go
Ġmb udidaya
umb ana
gr up
Ġpang uwaos
Ġpan inggalan
ast in
Ġdib ub
Ġdib antu
ĠUn it
Ġpam Ã¨ran
Ġsek under
Ġmis ahakÃ©
Ġtel epon
ĠZ aman
Ġket ik
Ġkel inci
sp an
apa an
Ġmangg ihi
ĠPi agam
kal is
Ġ' .
Ġpamb uluh
Ġku Ã©
Ġz o
Saw ise
ĠDa ihatsu
ahli an
Ġsub sp
ĠTV RI
ĠKa um
ĠPut eri
ê§Ģ âĢĭ
ĠKep uloan
Ġkarir ipun
Ġsir kulasi
ĠPl uto
Ġgag ah
Un iversi
Ġbl ethok
ĠTab ukan
Ġnind akake
ĠSun ni
ĠPand awa
format ika
Ġus um
ĠDes ain
Ġid eal
ĠCom mun
ĠTar ub
Ġcem ara
Ġtangg anÃ©
Ġbuntut Ã©
Ġ186 9
ĠHas san
ĠPeg on
Ġsapanunggal anipun
Ġgamb lang
Ġbe asiswa
rawa sih
ĠTop eng
Ġdikl asifikasi
Ban ua
ĠRaf f
Ġemb rio
ĠLaks mana
ĠTangg el
Ġsangandhap ipun
Ġfos for
ĠsÃ©d anipun
Ġngumpul akÃ©
ID S
ĠSci ence
ĠRog er
Rej asari
ukses an
Ġwond Ã©nÃ©
ĠIT B
Ġsind rom
ĠArist ot
Ġlant aran
ĠLuka s
ĠManaj emen
Shar p
. âĢĿ
. );
D Ã¨wi
G et
H id
J uni
J etis
K ot
L o
L emah
M ang
N or
S Ã¸r
T in
V an
Y o
c ana
g ak
g ading
k eb
l eksi
l ipt
n ell
p hy
q ih
t oko
Ġd eg
Ġd aftar
Ġk operasi
Ġl ayak
Ġl evel
Ġm ayor
Ġm angsanÃ©
Ġm ewah
Ġm alaÃ©kat
ah o
aw ali
aw ungu
ĠK is
ĠK iai
ur as
Ġb olong
Ġb arb
ad Ã©sa
ĠS rik
Ġn agar
ĠP is
ĠP sik
Ġw os
Ġw adi
Ġng ethok
ant oro
ĠB angun
il asan
ĠA gr
ag at
ĠT ebing
ĠT erminal
ĠJ ustin
ĠD ad
ĠD ia
Ġr ec
ĠN angg
Ġ2 10
ĠC athetan
os ong
ĠG ede
and r
emb aka
ed ari
Ġdipun arahaken
Ġdipun waos
Ġkap aringan
ĠF ilip
op y
adh em
adh adhu
ob ar
ig ar
ĠE un
ĠE ropah
ĠY e
eka ten
Ã¨k tor
usi k
li er
angk u
Ġdit embang
Ġkar awitan
Ġh o
he ad
osi da
Ġkat Ã¨s
Ġpang aj
Ġpang ec
Ġngl apor
eh ane
Ġsad ayanipun
eri um
imb al
Ġker ucut
Ġar ak
Ġml engkung
Ġtet enger
Ġad em
Ġpam Ã©rangan
Ġpam Ã©ran
Ġsep ak
pr aja
Ġber at
Ġkados ta
Ġkel ebu
Ġdir esiki
ĠBl ok
ĠMan ik
Ġpel anggan
th ers
Ġmar ag
Ġmar isi
ĠPar am
Kar angg
inc ut
Ġaj rih
Ġop tim
à¤ µ
Ġam ergi
Ġsosi ologi
kap al
Ġmed ium
ĠMus uk
rom o
ĠSer am
sit Ã¨ktur
ĠPas al
ĠSy ari
As h
Ġpers en
ĠWiwit anipun
ĠBen jamin
ĠSen in
Pang eran
Ġpanj al
Ġpand amelan
Ġsamp el
ĠDav e
ĠMasjid il
ĠGi ovanni
ĠStr at
Ġpern ikah
godh ongan
Ġwin ih
Wan areja
ĠRos e
che on
Ġkhusus Ã©
Ġprakt Ã¨k
Ġlemp ongan
Ġrem uk
ungs un
Ġkup u
ĠWah yu
Ġremb ugan
ĠLet nan
ĠBukit tinggi
ĠSoekar nop
Ġlint asan
ĠSec ret
ĠBud dha
ĠNat una
ĠJay awijaya
ĠØ¨ ÙĨ
ĠYou T
ĠÃ¨lÃ¨ktron ik
Ġkontrov Ã¨rsi
ĠCent ral
ĠHart ono
Ġdisug uhakÃ©
Ġdony anÃ©
ĠSlov enia
Buk it
ĠPurwa asri
Ġmerl okakÃ©
prod uk
ĠCerb on
Ġwekt unÃ©
Ġdigandheng ake
ĠarÃ© a
ĠBerkel ey
toph thora
E ng
J ack
K os
M arga
M az
M ekar
O G
P utri
S Ã©da
S ujarah
U ni
f el
f eld
g ur
g itar
g adhing
i asaan
k il
t z
t al
v irus
Ä Ł
ï º
Ġs endh
Ġd eleng
Ġk umpeni
Ġl abu
si ta
Ġm roduksi
on aris
Ġt emen
Ġt engg
Ġka hyangan
as truktur
ĠK ok
ĠS Ã©n
Ġn c
ut ih
ĠP B
ĠP aringin
em it
em ot
el akÃ©
ĠB M
ĠB art
il ian
ĠM ijÃ¨n
et okakÃ©
Ġg ig
Ġg atra
Ġg isik
ir anÃ©
ir aja
ap u
ĠD ata
Ġr Ã©si
Ġr andha
ih ong
ĠN al
Ġ2 30
ĠL ind
ĠL enn
Ġc ita
Ġc inta
ĠR ab
Ġtaun Ã©
ĠG apura
angka ra
emb un
ĠH ur
Ġdipun h
ra os
Ġsak j
ent as
Ġny eri
op el
og iri
anc ing
ĠE ti
ĠAm in
ĠPr at
li rong
Ġh e
Ġh tt
ĠPer pustakaan
uc a
ĠAl pen
Ġv ir
odh ang
ont onan
Ã¨s kripsi
ert y
Ġag eman
Ġar ahan
Ġap art
eja an
Ġtr ek
Ġat er
ĠGr en
Ġst roke
unt ang
Ġkomp or
aks es
dal em
Ġpert emuan
atif ikasi
ĠSep ak
ĠPar lemen
erm arket
ĠNew castle
ĠCar los
Ġpemb antu
ĠTr ucuk
arep Ã©
Ġngal ir
Ġkek urangan
ĠAnd roid
eor ologi
Ġuw al
Ġgen etika
Ġpucuk ipun
Ġ189 1
ĠSet unggal
Ġngel awan
Pang aji
ĠMo on
ĠWanas alam
Ġpand eleng
Ġe uro
196 4
196 5
Ġpot lot
ĠDo el
Ð° Ñ
ĠWin ong
kul awarga
ĠPram oed
ĠFer gus
Pad unung
ĠTamb ra
ĠProf esor
Ġtar ung
Ġent Ã¨k
Ġsakab ehing
ĠIndh ia
ĠpagawÃ© yan
Ġpew ayangan
Ġterb uka
ĠKah ayan
Ġsop an
Ġnandh ani
ĠmÃ© ter
ĠOli ver
Ġengg al
Ġringk es
ĠrÃ©l atif
ĠSingh asari
Ġrefer ensi
Phy tophthora
ĠLincol n
ĠPramoed ya
: -
B oten
C B
D as
D isk
K n
M asa
M antri
M edan
N ap
N ET
O c
P KI
T it
b umbu
d ian
g un
g ent
j aman
k ing
p is
p ons
p utri
s l
s ten
u in
v ei
y es
Ġ akar
ang ai
Ġs udh
Ġs embah
Ġk ina
si mb
Ġm ani
Ġm antu
Ġm uara
am ika
on na
ik anÃ©
Ġka dha
is at
ĠK ana
ĠK eraton
ur is
Ġb eta
ad er
ĠP ant
ĠP asi
ĠP lan
Ġw uku
ul yan
it ane
Ġng amb
el akaan
ĠB antar
ĠM ayang
ĠM akam
us hu
ag aman
ĠT ej
ap yak
Ġj aring
Ġj abat
hi z
ep et
ĠN agas
ĠN adia
ĠW eda
ĠW adhuk
ĠC ob
ĠC end
ĠC urug
ĠC osta
amb ungan
angka i
ĠH unt
ĠH ayam
Ġdipun tandh
ra i
Ġf onÃ©
ĠF al
tr eman
Ġas osiasi
Ġas rama
Ġak urat
Ġdip impin
na v
ĠO w
ĠO wen
ijin ipun
Ġsa Ã¨stu
âĢ ²
Ġnd andani
Ġh as
Ġh ard
Ġh ulu
oka t
uc tion
Ġpang Ã©ran
Ġpan ingkatan
Ġngl ad
est ad
Ġsar adhadhu
ĠCh ad
Ġngr awat
imb ah
Ġtet edhan
Ġbal ok
Ġmusi kÃ©
ĠPur i
Ã¨t is
ĠSt ep
udh ukan
Ġber ubah
Ġkep uloan
ĠBat ik
Ġpas ugatan
Ġkur ikulum
ĠÃī d
Ġsin ebat
ĠAs mara
awar ti
adhi on
An n
unc uran
Ġsen adyan
ĠPar lemÃ¨n
ĠMin h
abr ak
Ġbiy en
ĠX X
ĠPen erbangan
Ġpit uduh
Ġpes antren
Ġmr ambat
ustri an
kap ing
ĠJoh or
ĠOr ganization
Ġpaw artos
Ġprof Ã©sor
ĠPad atanipun
ĠGro jogan
Ùı Ùĳ
Ġsir na
Ġkont Ã¨ks
ĠWil ayah
ĠBel gia
Ġth othok
ĠBi ologi
Ġdipung ay
Ġmandh iri
ĠPel angi
ÙĪ Ø±
Ġtart emtu
ĠSil iwangi
ĠDip l
Ġtemp el
Ġpenc ak
kl usif
Ġsemp at
att le
ĠCan nes
ondh ong
Ġpamar Ã¨ntah
Ġsy ukur
ĠBanyu asin
ĠCal abria
Po kÃ©mon
ĠKag unan
Ġany arÃ©
Ġdikar epake
ĠTy ler
ĠPS SI
Ġrak angat
Ġnap as
Ġsun at
Ġjend ral
Ġsakiter ing
ĠGab us
eso emo
Ġngak ibatakÃ©
Ġditampil ake
ĠRis et
Ġkaten treman
ĠTomat oes
ĠHist ory
ĠJaken an
Ġsku ad
ĠWikip edia
ĠlÃ¨g islatif
Ġneut ron
ĠHiros hima
ĠMits ubishi
ĠÃ¨ng gal
Ġdiasin ake
igra fi
ĠPela ihari
Ġkwal itas
ĠTambra uw
- ,
A dh
C amp
D P
D ha
K end
K angge
L eb
L ayang
M u
M or
M eg
R at
R oman
S om
W ew
b eb
c ap
d at
g am
n isi
p ed
p rovinsi
s esi
t em
Ø º
Ġ aneh
Ġs Ã©r
Ġs end
Ġs ina
Ġs anto
ar iyosaken
Ġd aun
si ar
in ang
in au
in ji
Ġt utur
Ġka untungan
is che
as si
ĠK Ã¨n
Ġb ung
Ġb apa
Ġb ujur
ĠS of
ĠS utan
ĠS ugi
ĠS TA
Ġn Ã¨mpÃ¨l
Ġdi owah
ut ung
ĠP awiyatan
ab awa
dh asar
Ġng ar
Ġng irangi
ĠM ati
ĠM ard
ĠM ontor
us hi
ag ed
ag ati
ag Ã©yan
Ġg udh
Ã¨n e
uk le
ara j
ol ang
ĠD Ã©wi
iy ara
Ġr ukun
ac y
ĠL op
ĠL ess
ĠL uz
ĠL ingga
ong kar
Ġc ithak
Ġc adangan
ĠR al
Ġdh ebut
ud ur
ay e
ed u
ĠH ani
ĠF en
ĠF TV
ĠU mp
tr and
uj on
uj oni
ungg ulan
Ġpr awan
ic in
Ġman Ã¨ka
eka ki
Ġmen arik
ata an
ĠPr Ã©si
Ġkar enan
ĠV it
ĠPer hubungan
19 49
Ġkaw astanan
ast ina
asan ama
ard ja
ĠCh oi
imb ali
imb led
ĠMal l
imp or
erb rum
Ġber operasi
Ġter kenal
ĠKr itik
Ġkep ilih
war as
Ġdipunp roduksi
ĠNg emplak
ĠAd jie
ĠSel ayar
ĠSel emadeg
Ġdij l
Ġlel agon
dal en
adeg an
ĠSo eb
ĠLe icester
Ġhi br
ĠPi us
ĠX IV
Ġseni orÃ©
sis sip
Ġdhasar ing
Ġbin ti
ĠOr ang
Ġkay adÃ©nÃ©
Ã¸ re
Ã¸ nd
Ġmur ka
ĠKon sili
Un dang
Ã¨mp Ã¨ng
Ġind onesia
Ġmandh Ã©gani
Ã©nd ra
ĠPert empuran
ĠPet ers
Ãī timologi
abel an
Ġsamp ingan
ĠRam adhan
ĠBas el
Ġbay angan
Ġbay aran
Ã¨nt asi
Ġpraj anjÃ¨n
ĠRo os
Ġtrans misi
ĠKomp uter
Bl ack
Ġkin erja
Ġsr ana
195 3
Ġngand ung
Ġkawigat en
Ġmagn et
ĠMiss ouri
stan si
Kom unitas
ĠPri x
ĠPus aka
Ġtir ta
Kag unan
ĠAnj ir
ĠDig ital
Ġkud unÃ©
Ġmay it
ĠAB RI
Ġparag ane
Ġray inipun
ĠDic kens
Gol den
ĠDec eptic
Ġdibanding akÃ©
Ġpanyar ta
Ġpanyer atan
Ġkepeng in
ĠAja x
Ġperh atian
Ġgat el
ĠAch mad
ĠEth n
Ġmij il
Ġjiw anÃ©
ĠHerc ules
Ġtunt utan
UC N
ĠBagel Ã¨n
ĠBoliv ia
ĠGath otkaca
Ġoper asional
imbled on
2 20
B re
B athara
B andhar
G h
G emb
I R
J ej
L am
L ap
L atin
M ac
P N
R E
R os
S ultan
T y
T al
T en
T ap
W A
W el
b ana
f ak
k ia
l ap
l ih
n Ã¨
n ani
w ektu
z hou
æ ľ
Ġ è
Ġ ì
Ġ az
ing on
Ġs n
Ġs engg
Ġs oko
Ġs oba
Ġp unggung
Ġk Ã©c
al us
Ġl ont
Ġm ustaka
on ly
Ã¨ da
ak Ã¨h
Ġt opi
Ġka uangan
Ġb ent
Ġb unt
Ġb ulus
Ġb eksa
Ġb osok
ĠS ega
ĠS ambi
Ġn emen
Ġn engen
Ġn angkep
Ġdi udh
Ġdi ripta
ĠP las
ĠP upuk
ĠP agelaran
ul aken
Ġng ul
Ġng arang
Ġng ind
Ġng unggah
Ġng ombe
il at
ro ho
ĠM om
ĠM och
ĠM iller
ag r
et z
Ġg arapan
Ã¨n ter
ara y
Ġj urang
ĠD ene
Ġr usa
Ġr umput
Ġr inggit
ep a
ĠN in
om od
im asi
ĠL ub
Ġc ok
Ġc hip
Ġdh om
amb ani
angg Ã¨n
ĠInd rag
ta fa
ĠH ag
ot in
Ġkap engker
ent uan
ub ara
Ġny alon
og ue
Ġas ta
Ġpr atÃ©l
Ġdip ekaki
ic es
ĠE b
ĠO F
ĠO f
ĠO hio
ec o
Ġdig edh
Ġ3 000
Ġkab ecikan
Ġmb aka
he y
ĠV o
ala xy
ĠPer se
Ġsam urai
oc ar
ĠAl pha
Ġwar ganÃ©
ja va
Ġan eka
Ġ18 30
imb ingan
asil aken
ĠSal v
Ġsep i
ĠÃ ł
Ġsp ora
ĠKar ir
Ġkel oro
ĠNg awÃ¨n
ĠÃī ropa
ĠAd iw
Ġpir amida
Ġlem ut
Ġpat inÃ©
Ġ20 8
Ġmangg ang
Ġngandh arake
Ġmet al
ĠAk tor
abr akan
Ġadh ep
ĠQ WER
Ġngisor e
ĠtÃ© la
ĠPan itia
Ġmer ga
Kal ip
gay ut
ĠSak liyanÃ©
ĠPam otan
Ġalit ipun
Ġkaj upuk
Ġê¦ ©
Ġê¦ ł
ĠRing in
ĠKh mer
ĠLa ung
ĠKem al
ĠSang ihe
ĠJep on
ĠSen Ã¨n
ĠMo unt
Ġis o
Ġsamp eyan
ĠChar lie
rol l
dow n
Sumber agung
ĠMak utha
ĠUr usan
Ã¶ t
ĠAri el
ĠÃĪ n
ĠÃĪ s
inj eng
ĠOp era
Ġkandh ung
Ġleg endaris
uwar na
Ġken yal
à¥ ģ
Kari Ã¨r
ĠAf gan
Ġrah ang
Ġsul fat
okoh ama
Kep ala
Ġkamar dhikan
Pag esangan
odi ak
ĠEng lish
yd ia
Ġpiy antun
anjut akÃ©
esiden an
Purw asari
Komp as
Ġkedh elÃ©
ĠHit am
ĠDep uti
Ġmenc apai
Ġdimain ake
Ġnyi apakÃ©
eber ry
Ġdipat eni
ĠJal aran
Ġfen omena
Ġdisar Ã¨kakÃ©
ĠLeg islatif
Ġsakl ompok
Ġaset at
ĠTau fik
ĠLemb u
esn ani
ĠSemen anjung
Ġren yah
iwar akaken
ĠmÃ¨r ek
Ġsingg asana
Karakter istik
ĠPekan baru
Ġrez im
oglob in
ejahtera an
ĠYouT ube
sissip pi
ĠIndrag iri
ĠQWER TY
A da
C ina
C ast
E p
H ot
K asi
K ayu
M ir
M orfologi
N ur
O V
P andan
d ung
d inten
h ala
k ur
m ang
p op
t itik
w oh
y id
y onal
Ð ¹
Ġ eksi
an na
Ã© ro
Ġs angg
Ġs ida
Ġs hio
Ġs ijine
ar ke
Ġd Ã¨wi
Ġk uno
en ar
er j
on at
ak ian
is se
aw angsari
ĠK lirong
Ġb ath
Ġb eli
Ġb uyut
ĠS iw
ĠS arang
ĠS truktur
ĠS Ã©ri
Ġn umpes
Ġn empuh
Ġdi v
Ġdi id
Ġdi yakini
ĠP iy
ĠP ambangunan
ul Ã©
Ġng uri
Ġng iket
Ġng utus
ĠB uc
ĠB aku
ĠB abat
ĠA dolf
ĠM umbai
ag or
ĠT id
ĠT unggul
ĠT bk
ĠT unisia
es que
ir isi
ĠJ uw
ĠJ ae
ol at
ĠD Ã©
ĠD ukun
Ġr eb
ep ak
Ã©n is
ac ea
ĠN uh
im un
im en
ĠL en
ĠL okasi
ĠC ur
ĠC ab
ĠC inten
ĠC ry
Ġc al
Ġc in
ĠR iy
ĠIn v
and ro
ud on
Ġya yasan
ĠH uman
Ġkap as
Ġny imp
Ġny ipt
wÃ¨ hi
ĠE in
ĠO h
ec at
Ġngg oleki
Ġy o
Ã¨l Ã¨hakÃ©
Ġkas enengan
Ġkas lametan
asar ake
Ġh adis
aja iban
he us
man is
ĠPer empuan
ĠPer janjian
emp ur
ĠAl or
Ġpan itia
Ġsag u
Ġdib ukt
ĠUn daan
Ġses anti
Ġar sip
Ġar teri
ĠBar n
Ġdiw Ã©nÃ©hi
Ġpam ulangan
Ġlum awan
Ġst eak
ĠNur ul
Ġter l
ĠBl ink
Ġnam ing
ĠAd itya
Ġkomp onis
ond e
ell ing
Ġkom isi
Ġpap erangan
ĠNov el
rib adi
ĠKab iskopan
Ġkam us
Ġsen si
Ġpend idik
ess or
Ġhi j
ĠQ atar
form ula
ĠUt awa
Ãª t
à¤ ķ
ĠKat e
Ġwoh an
ĠÃ©k ologi
Ġdinten ipun
Ġmang erteni
ĠBo ok
Ġkarir e
Ã©b at
Ġkek ebalan
eli us
Ġê¦ ¥
ĠAir langga
ĠIb n
Ġ0 5
ĠCol orado
Ġasil Ã©
Ġsej ak
ĠMen taya
Ġseg men
Ġel emen
ĠSen at
ĠTer usan
Ġding in
Ġpac ar
Ġanti b
Sp ongeBob
ĠDip anagara
ĠPon orogo
Ġpenj ajah
rof il
Ġpec ahan
ys hire
ĠRobert s
ĠMir dad
Ġef isi
Ġner aka
ĠÅ Į
ĠPandh u
Ġmes ki
ĠMangkun egaran
Ġdiduw eni
Ġtit ikan
ĠSand y
Ġkontrov ersial
ĠSug riwa
saw isÃ©
Ġkenc ur
Ġngubung aken
Dem ografi
ĠNd Ã¨k
Ġdipisah akÃ©
Ġgo dong
Ġwul unÃ©
ĠIntern et
Ġnylamet akÃ©
Ġditampil akÃ©
ĠLyn n
Ġhan ya
Ġdipit uturakÃ©
Ġdicelup ake
ĠbonÃ© kah
ĠTeh eran
Ġdikalah akÃ©
ĠZa id
ĠPho enix
Ġprih atin
ĠKamer un
Ġtransg Ã¨ndher
ĠEku ador
ĠLenn on
only include
) )
A ti
B E
C al
C ha
E t
G ermain
H A
H ukum
I d
I bu
L C
L in
L og
N ational
P ec
P endh
P eter
P awiyatan
R NA
R aden
S amp
S oka
U mb
W est
b udaya
c ole
d alan
e am
e imbangan
j engan
m eng
t urut
t latah
t ulisan
w as
y er
z am
z io
Ø ®
Ġ ig
an u
Ġs endhang
Ġd ampak
Ġp aran
si f
Ġm or
ĠK le
Ġb ron
Ġn uwuh
Ġdi ol
it ta
it ch
ĠB esi
ĠB injai
ĠM anÃ©ka
ag al
Ġg im
ĠT ugas
es ek
Ã¨n Ã¨ng
Ġj ahat
ih un
ac he
ĠL uther
ĠW angs
ĠC lair
ĠC andi
Ġc up
ĠR awa
ĠG angga
ĠG ame
ĠG aza
ay awan
ed uluran
ĠH um
ok ong
ari us
Ġsak ul
Ġsak iw
Ġny r
Ġny adÃ©
ip h
any ang
anc o
anc ak
anc ani
ĠE ar
isan s
". "
li ff
Ġdit olak
Ġh ari
Ġh arian
Ġmb r
ain Ã©
ist s
Ġbab on
Ġkr onis
ĠAr ut
uka ran
da fi
Ġkl uster
Ġmas rah
Ã©ng inan
ĠMar kas
Ġngr aman
Ã¨ng s
ev e
Ġsep alih
Ġkag andhÃ¨ng
Ġst rip
Ġ9 50
Ġkep ada
Ġdil ayani
Ġkel ainan
Ġbi oskop
ĠAd rian
Ġndh elik
Ġdid unungi
Ġsen apan
ĠAk kad
In ter
Ġhi per
Al l
Ġnasional is
Ġkons ep
Ġpany el
Ar sitektur
ĠBal tik
à¤ ®
Ġmak hluk
Ng ar
ĠOr gan
ĠSer p
ĠSer ibu
ĠDem okrat
opot amia
Ġpet ualangan
ĠpamarÃ©ntah anÃ©
ĠSi ak
ator y
ĠDi ana
Ġjej er
Mar ia
ĠHan acaraka
ĠAnt ang
sk ripsi
Ġmem ori
ĠJos Ã©
Ġsedh ih
Ġteg alan
ĠSid ang
ĠTul ang
ĠBu ayan
ĠSil ver
Ġngrembaka kaken
Ġjaj aran
Wan asari
Ġoksi da
Ġkaka o
195 8
Ġabot Ã©
ĠStudi es
ĠCon n
Ġdu et
ebo ok
á» ģ
Ġgug ur
ĠMant angai
ĠStev ens
oft ware
Ã± o
ĠDam as
Äķ n
band ingan
lis on
Ġpew aris
Ġngec ulakÃ©
ref ektur
Ġgodh ogan
Ġdikl ompokakÃ©
ĠPerd agangan
Tel aga
ĠLap angan
Ġpoten sial
Ġfl ora
estar Ã¨kakÃ©
Ġmaksi mum
ĠGuy ana
Ġrag il
Ġlag unÃ©
ĠKunt hi
ĠTod anan
ĠUzb Ã¨k
Ġmrat el
ĠAmÃ¨r ikah
Ġfac to
ĠPrÃ¨si dhÃ¨n
Ġkaman ungsan
ĠOnt ario
rogr aman
ĠAmaz on
ĠZÃ¼ rich
Disk ografi
B awang
C ak
D ep
G amb
J al
J im
L or
L ib
R ed
S und
W I
Y A
b ak
g ung
g ro
l ambang
l ess
n ar
n ers
s as
s eti
y aw
z ai
Ã Ł
Ð ±
Ġ Ã©tanol
ng l
ing alan
ar akan
Ġp Ã¨r
al ipun
Ġl ingga
Ġm ayon
Ġm anÃ©h
ik um
ik ini
Ġt engk
Ġt entang
is ch
Ġb antu
ad ari
ĠS ami
ĠS ayung
Ġn ular
Ġdi andh
ĠP angka
ĠP aman
ĠP onc
ĠP opulasi
Ġw el
em ek
em angan
or ama
or ig
ab ase
Ġng Ã©wahi
Ġng rokok
Ġng Ã©ntukakÃ©
ika yat
ĠM ira
ĠM angun
ĠI rian
Ġg Ãª
ĠT lag
ĠJ av
ĠJ aringan
ĠJ emuwah
ĠD im
ĠD war
Ġr ic
ek ne
ĠL ubuk
ĠC iv
Ġc he
Ġc ithakan
ĠR eli
ĠR onald
Ġu bi
ĠG am
ed ug
ĠH ub
ĠH ui
Ġf ans
ĠF uku
Ġny Ã©tak
op us
tr echt
ti e
ĠO pen
Ġal l
Ġngg l
li b
Ġkar amel
Ġkar nivora
ĠV ika
ĠDh Ã¨wÃ¨
ai an
ĠAl eks
ian s
ĠAr ema
ĠKal iyan
19 55
kat hah
Ġro dok
ĠMar os
ĠMar co
Ġngr intis
Ġpeng urus
Ġdiw ujud
Ġdiw akili
Ġtil aran
Ġat raksi
ĠZ amb
uari um
Ġtan k
agu a
Ġdaging Ã©
antos aken
ĠKap isan
Ġres Ã¨nsi
all as
ĠRom ania
ĠSo und
Ġkh alifah
form al
Ġkons ervatif
ĠAc tress
Ġisi ne
Ġsajarah Ã©
ĠEn d
ĠSab ibaripun
gay utakÃ©
Ġpendh idhik
ĠKl ampis
ĠPam eran
Ġkeb angsaan
Ġkadh ar
ensi al
ens us
Karang tengah
ĠIb unipun
ĠKlath en
ener Ã©
Ġdipunk elola
ĠTa ipei
Ġbuk anÃ©
ĠSap utra
ĠSen yawa
Ġment eri
Ġngem unah
ĠAh li
Ġpopulasi nÃ©
ĠGi gi
ĠDe ut
Car anipun
Ġvari etas
Ġreg ed
Ġomb Ã¨nan
ĠSr impi
ĠJat il
ĠUp in
Ġarsit ek
ĠMet ropolitan
ĠDel ta
Ġngadh ep
Ġngad ani
Ġken ari
ĠBis nis
Ġned ya
Ġtangg ap
ĠBro thers
ĠCap e
Ġdiad opsi
Ġinv estasi
kanc anipun
Ġded eg
ĠCamp ania
ĠBern ard
Ġdigambar ake
Ġnglair aken
ĠBrah ma
ĠBrah mana
lot te
Ġdial Ã©k
Ġhot el
ĠDerb yshire
Nov Ã¨l
Ġtumb as
Ġnaw akakÃ©
Ġfos fat
ĠSev illa
Ġcl ana
Ġpambront ak
Ġdhiam eter
Ġngay omi
Ġngap usi
ĠJane iro
Moh ammad
ĠMarsh all
Hen ry
Ġdak wah
Sans kerta
Ġga ib
ming ham
Ġditerang ake
×Ļ ×
ĠWalik ota
ĠFreder ick
ĠPeri ode
umer ik
Ġatl Ã©t
Ġpanger ten
ĠHerak les
ĠRaff les
Ġsudh ut
ĠDeceptic ons
1 13
3 20
A yam
B athik
D ebut
D ukuh
G olongan
H ong
I l
K ir
M esin
N d
R O
S ya
S ib
T ugu
W ana
Y ang
b ant
b ie
c in
g uk
i el
i ara
j or
j ene
l ami
l angit
m s
m ut
m iturut
s s
t le
Î ´
ä º
Ġ Ã©d
Ġs aran
Ġs emen
Ġs ukar
Ġs triker
Ġd am
Ġp olusi
al y
al ari
al ke
at ron
en ak
en ten
Ġl uput
Ġm eth
Ġm impang
er ut
am orf
in ment
ak onÃ©
ĠK asih
Ġb ilik
ĠS ac
ĠS endang
Ġn rima
Ġn atrium
Ġdi tan
Ġdi engg
ut ane
ĠP A
ĠP anti
ĠP itu
dh istan
Ġng angg
Ġng uwat
ĠB ac
ĠB og
ĠB oh
um erta
ĠI M
et y
ĠT ayu
ĠT rag
ĠD ha
ĠD og
ĠD imas
go m
Ġr ont
Ã©n ten
ĠN j
ĠN u
ĠN um
ĠN ia
ĠL A
ĠL ayang
ĠL ambang
ĠW as
ĠW ad
Ġc engk
ĠR el
ĠR ita
os us
ĠG ant
ĠG emb
Ġut ara
ay ane
Ġmin agka
ti co
Ġas rep
Ġpr Ã©s
ej an
ig s
ig ator
iji an
ĠE le
ĠE qu
Ġal ergi
Ġngg antung
Ġngg antÃ¨ni
ĠAm y
ê¦ ļ
usi n
ib ah
art ika
art ono
Ġin isi
Ġdit ahan
Ġh it
Ġant arik
Ġkon ferÃ¨nsi
Ġtanggal an
Ġpang usaha
Ġput us
ch o
eri us
Ġdis usul
Ġag r
Ġag Ã¨n
ĠUn sur
ĠWal is
Ġdiw ajib
ĠIs abeau
ada an
ĠSt ates
Ġdic athet
Ġber arti
Ġdir ekam
Ġanggo tanipun
ĠNg adiraja
Ġlem es
ĠPro klamasi
eth ing
Ġ11 6
Ġmangg Ã©n
Ġumur e
Ġmet eng
ĠSh ak
Ġsem inar
Ġsel ang
ĠPat ung
Ãª p
Ġpany erang
ĠBal ap
Ġku antum
ĠTr adhisi
ĠTh or
ĠSuka s
ĠTegal reja
ĠSad urunge
Ġon line
Ġdhi alÃ©k
mas ing
ĠUm ur
Ġot omotif
Ġsipat ipun
ling gau
Ġanc asipun
Ġten un
Ġten is
196 3
Ġ188 6
Ġ188 7
Ġtemp e
Sel at
Ġbas kÃ¨t
Sad Ã¨rÃ¨ngipun
ĠSu gih
ĠNy oman
ĠKus uma
ĠAy am
Ġngam ati
Ġnglambang aken
Ġed itor
Ġkarier ipun
ĠFir st
Ġspir al
Ġberb asis
ĠGedh ang
zar ella
Ġbat hi
Kor Ã©a
Ol ahan
con sin
enggar akakÃ©
ĠKalib ening
Gedh ong
Ġseh at
ĠProduc tions
Ã©st asi
ebec ca
ĠRu dolf
Ġanan ing
ĠLuk man
ĠNAS A
ĠFamil ia
ĠWW E
Ġnggampang akÃ©
rakir akakÃ©
Ġhtt p
3 80
B O
D A
I K
L ang
L iga
M eng
N eg
P anggung
P urn
P ants
R ong
S S
S aos
S unda
T ok
V ik
f ish
h og
p os
p lat
r im
r Ã¨t
v as
Ï ħ
Ð ¿
Ġ eng
Ġ iga
Ġ Ã¨rÃ¨ng
ng anti
Ġs uka
Ġp edo
Ġk idang
al m
at em
at et
en k
en ch
si ran
er ga
Ġt emu
Ġt urahan
Ġt ontonan
aw angi
as angi
ĠK uw
ĠK ip
Ġb ro
Ġb ongk
ĠS n
ĠS end
ĠS anggar
ĠS empor
ĠS ains
Ġn ul
Ġn unggal
Ġdi omong
Ġdi anggap
Ġdi wÃ¨hi
ut ama
ĠP uger
Ġw acan
Ġw abah
ul d
ab ita
do va
il ton
il endra
ĠM anyar
ĠI a
ag Ã©an
et eran
Ġg ed
ĠJ us
ĠJ essica
Ġj epang
Ġj isim
ĠD ist
ĠD awanÃ©
ĠD idik
ĠD angdut
hi j
Ġr Ã¨
ep as
ac ano
ana i
ĠL Ã©
ĠL ec
ĠL ov
ĠL ont
ĠL ight
ĠL td
ĠW imbledon
ĠR O
ĠR ini
eg ahan
Ġu ang
ĠG ita
ĠG ener
adi pura
ay og
ĠH ey
ĠH yun
anj angan
Ġf it
Ġkap ul
amp ar
edh aharan
Ġor anÃ©
Ġsal inan
Ġpr usahaan
ĠY an
ĠY ad
ĠY ok
ec ula
ĠPr an
Ġkas enian
st one
Ġmb entang
ug aran
ug elan
anggal a
ĠDh aharan
Ġkat em
ov ie
iv asi
Ġpan el
Ġkul tur
lat ung
Ġpad ang
Ġpad amelan
ĠCh ap
Ġpeng as
indh ing
Ġdiw etokakÃ©
Ġtr ampil
Ġ7 37
Ġangg er
ĠAng in
ĠMan u
Ġgol ek
anggep i
ĠAb adi
Ġpel ayaran
unj awa
af e
ĠNov a
iti es
Ġkem udian
Ġ13 5
ĠPar ma
Ġduw Ã¨
Ġdr umblÃ¨k
rit is
qu el
ĠØ ®
ĠØ ´
Ġtumrap ing
Ġmr atan
ĠEn em
ĠTh alib
ĠSab anjure
Ġpal emahan
Ġpin ang
ĠKom isaris
ĠSer angan
Ã¨br Ã¨s
ĠBo x
enth ang
den an
ĠUm ay
alu i
Ġngremb ag
ĠKes esi
Ġ189 7
Ġmut asi
ĠCo oper
ĠMon umen
Ġpinggir Ã©
IN TA
Ġdidh asarakÃ©
Ġhid angan
Ġfor um
Bl imbing
Ġninggal aken
Ġ187 7
Ġet nik
Ġep id
uwar asan
ĠKay Ã¨n
ĠArt is
Ã§ a
Ġtap sir
ĠMod el
ĠBro ok
Ġtik et
Ġtetan en
Ġbedh il
Ġany aran
Pers atuan
Ġkalor one
ĠBapak ipun
Ġngaj okakÃ©
Ġglobal isasi
ĠAnn isa
Ġperl awanan
Tet uwuhan
Kel ompok
ĠHasan uddin
Ġdok tor
saw ijining
Ġland asan
Ġmekan ik
Ġngumum akÃ©
Ġnerang ake
bour g
ĠRet no
ĠKolon el
Kej u
ĠTen aga
Ġnot asi
ĠBour ne
Lel ara
Ġresi ko
Ġnalik anÃ©
Ġdif ermentasi
ĠPurn ama
Ġelekt romagnetik
Ġray i
Abdul lah
ulp ecula
Ġpest hi
Ġdhiam Ã¨ter
ĠFac tor
Ġakadh emi
isol asi
Ġditand uri
Ġperman en
pangg onan
Ġmum puni
Ġpay udara
ĠCE O
Ġdinyat akakÃ©
sinÃ© tron
ĠSoka raja
ĠCra ig
ĠBiz antium
ĠAnus apati
ĠFergus on
ĠfonÃ© m
1 01
A pril
B il
B ill
F ar
J ay
J aringan
K ro
N egara
P refektur
S L
S ut
S wara
T P
U K
U s
U t
g ari
g art
l ov
p t
s n
s emb
s dal
y aki
y awati
ng on
Ġs ana
Ġs iyang
ar awa
ar ij
ar kan
Ġd os
Ġd og
Ġd epan
Ġp iyambake
un ut
Ġl awa
si stem
Ġm iber
Ġm Ã©dia
Ġm lathi
er akÃ©
er ahan
er apan
on unci
Ġt iti
Ġt enang
Ġt abrakan
is al
ĠK re
ur angi
Ġb eg
Ġb Ã©la
ĠS indh
ĠS ea
ĠS andi
ĠP abrik
Ġw e
Ġw ira
it in
Ġng on
ant Ã©n
el ag
ĠB Ã¨ntÃ¨ng
ĠA sisten
ĠM andi
ĠI katan
ag ir
et ujuan
Ġg anggang
ĠT ujuan
ĠT egesÃ©
ĠT sipras
Ġ" -
ĠJ ulian
Ġj ema
up ukan
ĠD ak
ĠD ani
hi an
Ġr amanÃ©
Ã©n ovasi
ĠN ata
ĠN ancy
im ana
ek en
ek ke
Ġ2 60
ĠW oo
Ġc hi
ĠR M
Ġdh aptar
ĠG os
ĠG eger
ĠG ordon
ĠG alaxy
ud ang
Ġkal ung
Ġkal imat
ri er
ĠH aw
ĠH om
ĠH off
ok ke
Ġdipun n
Ġdipun asilaken
ot er
ot ida
isi on
Ġkap ital
Ġkap engkar
ĠF ul
ĠF ly
ub latung
Ġny embah
ip uro
Ġper anan
Ġper ayaan
Ġak sÃ¨s
ic u
ej aya
ĠY ani
ĠY asan
Ġal ign
Ġy ogurt
Ġsaj i
Ġh alaman
Ġant h
Ġmb urinÃ©
ĠDh Ã¨wÃ©kÃ©
Ġv ampir
Ġpang angg
Ġpang iring
Ġpang lima
Ġngl eg
eh aken
Ġsad ar
Ġ18 40
Ġ18 48
Ġdik umbah
ajeng an
Ġdis erang
ust on
ump ai
und uk
Ġpeng en
Ġat ap
Ġsep anjang
Ġsp ontan
ĠZ at
Ġber hasil
ĠKr ad
ĠSum antri
Ġkel opak
ĠSp ec
ĠAd e
ĠSel an
ue z
Dh eweke
Ġcar itanÃ©
Ġageng ipun
An th
ĠAk h
Ġhi m
Ġud akawis
Ġkes an
Ãª l
ĠX av
ou ver
ris ten
ris no
ebab aken
ĠPen angsang
Ġbap anipun
ĠKl asik
erc e
ĠpamarÃ©ntahan ipun
Ġwan odya
ork s
per ma
per usahaan
bo ok
ĠKarang b
Ġpl ay
Ġpl esir
Ġdin obat
ĠLa ura
ĠKem is
ĠBi asanÃ©
Ġmingg at
Ġpasar ta
Ġdipunk embangaken
Ġprot Ã¨s
Kem iri
Ġmut lak
ser vasi
ĠNo ah
ĠRob in
ĠOl impiadhe
Ġpand ang
Ġpandh an
Kr ajan
ĠBur sa
ago ya
Ġkor ban
ĠRus sell
Ġcep at
Ġkompl ek
apt is
tic s
Ġ187 1
Ġkandh ungan
Ġma en
ger ak
AR A
Ġneg ari
apanunggal ipun
ĠÅ ł
ĠBor neo
Ã¢ n
Ġcuw Ã¨r
Ġris Ã¨t
Ġditr ans
ĠBol lywood
Ġsapanunggal ipun
Ġlebet ipun
ĠCacah ing
emar ken
ĠSej arah
Ġlun yu
Ġpig men
Pul itik
Ġlib uran
Ġsakiter Ã©
ĠRiz ky
ĠNug roho
ĠMerc edes
ĠNab ire
cast ing
ĠsÃ¨k tor
ĠWib owo
Ġvert ebrata
Ġdikon trak
ĠTas ya
ĠRef ormasi
á¹£á¹Ń ub
Ã©part ement
ĠRem aja
ĠDoc tor
ĠAndal usia
ĠKumb akarna
Ġdar urat
Ġkapinter an
ĠWars awa
Ġsata un
ĠBumb lebee
Kath ah
Ġpambar ep
Ġperal atan
ĠAnat olia
Ġpernikah anÃ©
ĠÃīd ward
onunci ation
1 10
B is
B angun
C ir
E ur
G ajah
J aya
K ala
P ri
P ati
R ev
S iti
T am
T engg
W angun
Y P
b ei
c is
h on
j es
l ic
l oro
n om
r ir
r ayung
s ey
t at
v ariasi
x ar
Å ģ
Ġ Ã¨
ing atan
ka ta
Ġd ara
Ġp urn
Ġp Ã©hak
Ġk uk
Ġl er
Ġl aminipun
Ġl ambÃ©
si m
Ġm unt
Ġm ungguh
am ukti
ik ur
Ġt end
Ġt uhu
Ġka isi
ĠK atar
ĠK andhangan
ur ejo
ad ene
ad ona
Ġn ent
Ġn uku
Ġn Ã¨m
Ġdi operasi
ut en
ĠP ebruari
ĠP akaryan
Ġw uta
Ġw rag
or um
or ot
Ġng uji
el athon
ĠB usan
ĠB rod
ĠB eksan
ĠB ringin
um alang
ĠA aron
ag ram
ĠT ekan
es ha
Ġj angg
ĠD ragon
eb ula
asi le
go si
Ġr Ã©g
Ġr untuh
ep er
Ã©n ia
ac ho
ĠN az
ek usi
ĠL anc
ĠL ady
ĠL anguage
ĠL ydia
ĠW edhi
ĠW right
ĠC ard
ĠC ohen
ĠR angg
ĠR ata
ĠR ain
Ġtaun ipun
amb an
and il
ĠInd us
emb ugan
iw arna
ĠH ons
gi z
isi t
isi us
Ġf em
Ġkap rib
Ġkap itu
Ã©r n
Ġper maisuri
Ġpr unggu
anc ouver
ĠY oo
Ġal kaloid
ina e
od itas
Ġdit emu
Ġdit ugas
Ġdit urun
Ġdit egesi
st e
Ġkab eg
Ġh ir
ĠV ar
ĠV ideo
engk ong
Ġkat imbang
emp on
ind i
ĠAn as
ĠCh u
ĠMar zuki
Ã¨s an
Ġngr Ã©wangi
Ġ6 40
imb alan
kar nasi
ĠBr ata
Ã©l asi
ĠSal ak
Ġkag iyaraken
unt uhan
ĠZ ar
Ġdic akakÃ©
Ġber kas
ĠKr as
av irus
Ġkep incut
br ang
Ġnom or
ef ak
etan ahan
ĠPro xima
ric an
Ġpert imbangan
ĠRom eo
Ġset elah
ĠMin eral
ĠspÃ©si mÃ¨n
Ġaj eneng
qu ist
ker ud
Ġku ah
Ã©d ang
ĠSek retariat
ĠThe atre
Ġsuw iwi
Ġngal angi
Ġsed erhana
Ġpin it
ĠKaj en
ĠDem okrasi
Äģ ng
Ġwil ahan
ĠProp po
ĠKas kus
Ġ0 3
ĠSi dom
ĠCol l
ongk ong
ĠKh atulistiwa
Ã©dh i
Ġkec il
Ġmeng h
ĠBel arus
ĠDi am
Ġmingg on
Ġdipung adhahi
ĠPh ill
Ã©nd ro
Ġko ordinasi
Ġko alisi
ĠPort o
Ġmit rut
ĠMat ahari
ĠSin ar
ĠSin ematografi
Ġngembang ake
Ġnget rap
Ġaka l
rik sa
ĠNor ma
Ġhid rok
ĠDj oko
mo uth
Ġmadeg aken
Ġrep ublik
ĠEm ma
Ġi dola
ier re
ĠArt emis
Ġmedh ia
Ġmedh arakÃ©
Ð¸ Ð½
ĠBor ob
resi f
ĠFor ce
Ġ185 9
aug h
Ġdika w
Ġfot osintesis
Ġgamb arÃ©
ĠSol ok
Ġkonf igurasi
Ġsakab Ã¨hÃ©
rey er
Ġpangr embakan
Ġtut ul
ĠJac ques
Ġngaj ari
ven sional
asp ora
Ġsemb arang
ĠHus ain
Sus unan
Ġsakiter ipun
hol m
ĠBob by
engkap i
ĠAT P
ĠSina i
Cacah ing
Ġlis ensi
enggan u
ĠSaks ampunipun
Ġspons or
Ġtaks onomi
ĠMich el
Ġmangs uli
Ġlingk up
Uk uran
ĠManc hu
ĠTech n
Ġhidro karbon
ĠBeck ham
ĠdhÃ©wÃ¨ kÃ¨
Kandh utan
ĠLud wig
Ġngrung okakÃ©
Ġdikasil akÃ©
ĠKeth oprak
ĠTrun ajaya
pret asi
" /
B ol
B arb
C han
L it
L enga
M asarakat
M otif
P op
P asir
R andh
S ig
T awang
X O
] )
b h
b anjur
d ari
d ib
f ul
h ed
j ak
m ia
p intÃ©n
r n
s ebut
u atu
y ono
ï »
Ġ asih
Ã© y
Ġs olah
Ġs etan
Ġs ungu
Ġs ebrang
ar ya
Ġd Ã©
Ġk Ã©t
Ġk iat
Ġk yai
Ġk eroncong
al angi
Ġl ine
Ġl akt
Ġm ei
Ġm anjing
er it
Ġt angi
Ġt rip
Ġt inggalan
Ġka angkat
is hi
as ma
ĠK m
ĠK ina
ur anÃ©
Ġb int
Ġb ern
Ġb iksu
ĠS ach
Ġn ol
Ġdi op
Ġdi esel
Ġdi abetes
ĠP M
ĠP ing
ĠP ig
ĠP od
ĠP akar
ĠP arah
ĠP DI
ya pan
dh istrik
Ġng go
Ġng ic
ĠB av
ĠB uta
ĠB ayat
ĠA V
ĠM int
ĠM ert
ĠM era
ĠM egal
ĠT uj
up ak
up acara
ĠD ana
ĠD onald
asi us
iy ono
Ġr ebutan
Ġr awit
ĠN U
om ahan
im ulat
Ġsaka wit
ĠW atara
ĠW erk
ĠC ynthia
Ġc ake
ĠR uk
ĠR ek
ĠR enggan
eg e
ĠG om
emb an
ĠH is
ĠH era
Ġana filaksis
Ġf Ã¨s
Ġf Ã¨stival
Ġkap uk
ĠF aro
Ġper b
Ġper angan
Ġas teroid
au x
end e
end ung
Ã¨l Ã¨ng
oh o
Ġkab isan
awÃ© t
Ġpen alti
Ġaw Ã¨t
ow ell
ow der
Ġkon vensional
ĠAl d
ĠAl is
ĠAl li
Ġpang ed
Ġpang anggonÃ©
ĠAn anta
Ġkul in
lat ul
Ġngl indungi
Ġkaw ates
Ġan Ã¨h
Ġab uh
Ġdik umpul
Ġgedh Ã¨n
Ġwew angunan
ĠUn tuk
Ġngr angsang
imb o
Ġar um
Ġar wah
Ġar omatik
ĠKutha arja
ump it
Ġpeng end
Ġml umpat
Ġdiw aris
ĠAg en
ĠBr ama
Ġsek tor
una ake
pr insip
tor ia
ĠKar tanagara
Ġter ang
Ġter ong
ĠKr agan
Ġdir ajang
lah ar
ĠNg ada
ĠSM U
ĠAs u
Ġen do
Ġen ergi
Dh istrik
Ġcar anipun
Ġres pon
ĠKeb angkitan
all o
Ġ11 8
ĠBanjar harja
Ġpert ambangan
Ġmar itim
las e
ili un
Ġhi u
Ġgunung an
se udo
ich uan
ĠMah aputra
Ġpit utur
Ġij ol
Ġser atanipun
Ġmak anan
Ġngen ali
ĠMad ukara
ĠEn dang
ĠHar un
ĠSam in
ĠPam ukan
ĠBo ja
eman n
ram aka
ban kan
ĠTem on
Ġê¦ Ń
enang a
Ġnger teni
Ġkec elakaan
Ġbl edh
Ġpak ebonan
Ġdipung ina
ĠTab uk
ĠKer tanagara
ĠSl eman
Ġbuk unipun
ĠÃ¨n tuk
ĠKes Ã©hatan
sc ha
res ep
Ġsamp ai
Gr and
ĠMak kiyah
ĠDe L
Bi ase
Tr adhisi
ĠBa ek
ĠHa iti
Ġgas tronomi
Ġ188 2
Ġ188 4
Ġ188 5
ĠDir ection
Par aga
ĠMur ray
Ġ187 2
Ġ187 6
iyat anÃ©
ĠMor ris
Ġkin urmatan
Ġunt ung
ĠSumber eja
ĠOt onomi
ĠEx p
Ġ186 1
Ġngup adi
Ġrah im
ĠFor um
Ġwingking ipun
eder land
aksa an
Ġsakab Ã¨hanÃ©
ĠMis sissippi
ĠJer ry
ĠBud iman
raya kake
ĠVol ks
Ġraj angan
ĠBeng kalis
Ġtab Ã¨l
ĠSib olga
ĠdhÃ¨wÃ¨ ke
Ġdipl omatik
Gen erasi
Ġnembang akÃ©
ĠAstr onom
ĠpÃ©ri odhe
Ġnaw akake
ĠGram edia
Ġmujud akÃ©
ĠNgab lak
Rep ublik
Alex ander
Ġditemt okake
Ġmini atur
ĠMaka sar
Ġkim chi
Ġkamb ing
Ġpanem unÃ©
ucak wangi
ĠÃ¨tn ografi
ĠMosk wa
ardin ia
Ġkow Ã©
ĠNah d
ĠGlas gow
Ġsegit iga
ĠKard inal
Ġpanyimp enan
htt p
lipt us
ĠDamas kus
% ).
, -
1 30
A sp
B in
C E
C ik
C aranÃ©
G amelan
J in
J ung
J um
K amp
L ukisan
M urung
M obil
P aw
P it
P ast
P ondhok
Q uran
R otten
S usu
S ei
T un
T eg
U L
U gi
b ay
c io
f e
f Ã¨r
g anda
k ha
l ina
r ud
r ij
r asa
s eri
t egesÃ©
z yn
Ù ¡
å ¤
Ġ à¸
ng gal
Ġs tu
Ġs osok
Ġd end
Ġd ebat
un ten
Ġk iw
Ġk ent
Ġk ebab
Ġk unjungan
al id
at ip
en os
ak na
Ġt Ã¨r
Ġt enggara
Ġt arian
Ġt ugel
is er
Ġb asi
ad Ã©wa
Ġn in
Ġn av
Ġn unggu
Ġn antang
Ġdi ur
Ġdi aku
Ġng es
ant am
ĠB onÃ©
ĠB ok
ĠA sp
ĠM ey
ĠM otif
ĠI CA
et eksi
Ġg amping
ĠT K
ĠT ani
ĠT ala
ĠT rop
ĠT uan
ĠT Ã¨knik
Ġ" '
Ġ( ?
ap py
Ġj ab
ĠD ual
iy u
Ġr angkep
ĠN ana
ĠN ay
im ologi
ong gi
ĠC ong
ĠC os
ĠC ermÃ©
ĠR acing
amb on
ĠG in
ĠG ur
ĠG ubug
ed ur
ĠH D
ĠH ana
ĠH ero
gi e
isi ana
Ġf o
Ġf usi
Ġkap tÃ¨n
Ġkap erluan
ani ca
ani gara
Ã©r si
ub enging
Ġny ek
ĠY eh
Ġal tar
Ġal marhum
Ġdig at
ê¦ Ħ
Ã¨r ang
Ġkas ungsun
Ġdit ul
Ġdit it
Ġmb antah
ĠV arian
ĠDh arm
ĠPer cy
ow ali
oc ong
iv al
ind y
Ġngl ebetaken
Ġ18 70
eri ode
ĠUn der
Ġsab ab
Ġar en
ori i
ath eng
iya ga
ki en
Ġpeng amatan
Ġtr ilogi
ungka l
ĠBr am
ĠBr emen
ĠâĢ Ŀ
Ã¨t nam
ingg ahan
Ġst ok
ĠZ ona
ĠZ oo
ĠKr ish
Ġkep ingin
Ġangg Ã©nipun
Ġpas ulayan
Ġkuw ajiban
Ġun inÃ©
Ġdipunp asang
Ġdipuns ade
ĠNg g
ĠAd vent
Ġ16 00
Ġlel aku
Ġ11 7
ric e
An dh
Ġkam entrian
Ġpend erita
Ġsel ama
Al uh
Ġkes ah
ton ik
to sa
Ġser ing
Ġmir ah
Ġpemb el
ĠTr adisi
Ġbap anÃ©
Ġpendh ukung
ĠPas angan
arb uka
Ġmon umen
Ġpanc ake
Un sur
ĠIst imÃ©wa
Ġsej ajar
Ġputr ine
Ġmaka ping
Ã¨st ik
Ġgum un
ĠSen egal
ĠKe uskupan
ĠCo ok
ĠWanas egara
FT V
ash erbrum
ĠMon aco
Ġbel ang
row ulan
ĠNor man
Tr Ã¸nd
Ġ188 1
Pur wak
ĠDan araja
vi ew
ĠEm il
Ġwat ek
Ð° ÑĢ
akh ta
à¥ ĩ
Ġsis anÃ©
ĠEx press
ĠJum lah
ĠMoh amad
kel ompok
ĠDasar ata
Pag er
Tegal reja
Ġimp or
Ġinv asi
ĠKons ep
ĠBord en
Ġnemt okake
Sur abaya
Pel em
Ġrek reasi
ĠHot el
Ġcom m
Ġpip ih
ĠSya ikh
Ġdipunpr akirakaken
ĠMun ich
ĠUU D
erek ipun
Ġplat aran
Ġnap akasmani
omet ri
Ġinstr umen
Ġnylamet aken
saj eroning
Ġngeb aki
Ġval uta
ĠSquare Pants
Ġtaks on
ĠUzb ek
fir masi
Ġkahan anÃ©
Ġpanyuw unan
Ġflav onoid
ĠfÃ©dh eral
Ġpanlit Ã¨n
Ġtransp aran
ĠidhÃ¨n titas
ĠKapol ri
Ġditud uhakÃ©
Ġpengan ut
ĠKarangg edhÃ©
ongp anggang
ĠMerb abu
ĠAristot eles
ĠPeters burg
ĠAdiw erna
ĠAfgan istan
ĠRenggan is
TrÃ¸nd elag
; ".
A ut
B R
B ub
B unga
C and
D ie
E v
G eb
H o
K v
L y
L ajeng
M ant
N ga
O li
P antai
R us
R ub
R eal
R ock
S emp
S atu
S aks
T anggep
W ill
d as
e ux
g it
m or
q ah
r up
r adi
s uwÃ©
s wara
u ah
w ane
x e
y ub
Ã »
Ê ĥ
Ġ ayah
Ġs ch
Ġs Ã©p
Ġs Ã¨g
Ġs oda
Ġk idung
en eran
Ġm erang
Ġm astani
Ġm arai
Ġm adahab
er one
ak kÃ©
Ġt oy
Ġt asih
Ġt emenan
as ah
ur ti
Ġn or
Ġn udh
ĠP oh
Ġw ed
em asan
em impinan
em akmuran
ya g
ĠB Ã©
ĠM ega
ĠM ost
ĠM uz
ĠI gn
et ha
Ġg ir
Ġg unakakÃ©
ĠT ara
ĠT Ã¨k
ĠT untang
ir angan
Ġj emp
ĠD O
ĠD oll
ĠD ongg
hi asan
iy um
iy aki
Ġr in
Ã©n dha
om yc
ĠL uth
ĠL uhur
ĠL ille
ong ko
ĠW ajo
ĠC INTA
Ġc a
ĠR angga
ĠG esang
ĠG erbang
ĠG adhing
ij ang
Ġkal ajengaken
Ġkal ampahaken
uh l
ot ika
ot hy
Ġf igur
Ġkap impin
ĠF ant
ent hah
tan si
tan egara
edh ul
edh ot
Ġny amar
op ard
tr ad
Ġak s
Ġpr ang
Ġpr onunciation
Ġdip Ã¨ngeti
Ġman ing
ĠY okohama
od an
ê¦ ¯
ê¦ Ŀ
usi ness
li o
Ġdit epang
Ġkab Ã©basan
Ġh ati
Ġh ayati
ĠV id
ist ilah
ĠDh usun
engk el
ĠPer n
Ġsam angsa
le v
Ġkaw inan
Ġpad unungan
tu an
endh ut
Ġdib arengi
eri am
Ġses aj
Ġml eb
erb at
ĠBar ry
Ġad aptasi
ev an
Ġ7 47
Ġpam angg
ĠBr uce
ĠPur wan
Ġbaka u
ers ch
Ġtum urun
uni or
Ġdil apurakÃ©
Ġangg enipun
uta an
Ġbeb ingah
engg on
Ġkad ayan
Ġtim ah
ĠSem inari
ĠAd v
ĠAd imulya
ĠSel uma
Ø§ Ùħ
ĠJerman ik
ĠPro ses
ampun e
Ġdid andani
Ġ13 00
ĠSh er
Ġsem entara
Ġkh atulistiwa
ĠSing araja
Al b
ĠUt omo
Ã©m onstrasi
Ġawak ipun
Ġkali hipun
ris h
Ġop erator
Ġwekdal ipun
lor one
ĠCar akan
Kal is
Ġdisi apakÃ©
Ã¥ l
ĠDa ud
Ġnud uh
Ġkeb ijakan
Ġa udio
ĠKarang gayam
Ġmangk uk
ĠDr up
Ġpet ugas
ĠMel ati
ĠGar ung
ĠKem angkon
Ġth at
ĠPurw asari
ĠAS I
asang a
ĠLum antar
Ġgay uh
oth er
Ġpisan ane
ĠJos e
Ġsedh ep
onc ong
Ã¨nt ina
196 1
Ġperd u
Ġpedh alangan
Ġrep roduksi
à¸ ²
Ġtemp eratur
Ġid Ã©
bal anÃ©
Ag us
ĠBumi ayu
ĠGo ogle
195 7
195 9
ĠTom my
wit ter
Ġkeka jengan
andhÃ¨ng akÃ©
Ġsul ing
ĠCan is
ĠEv ans
ars anipun
ê¦¼ ê¦ģ
ĠFin lan
Ġwal uh
Ġbedh a
ĠHill s
Ġbers ejarah
Ã± a
uja an
ê¦« ê¦¤
ĠJer emy
ĠJay ad
ĠSya fi
Ġkekar ep
ĠCont one
ĠCer ita
ĠShe ila
Ġrant aman
Ġplat form
Ġflu ida
DI Y
ĠÃ¨fÃ¨k tif
ĠKand angan
Ġnyam ektakaken
Ġdl uwang
Ġngra os
ĠMov ies
amas astra
Ġpemer intah
ĠAndre as
áº ¿
Ġsakw isÃ©
Ġdipunpit ados
ĠPurn omo
Lar angan
ĠAmpÃ¨l gadhing
Ġtub uh
Ġkalk ulus
ogh urt
nov Ã¨l
akata u
ĠLamp ihong
ĠsedhÃ¨rÃ¨k ipun
Ã¨rb ivor
Ġdiarah ake
Ġmindh ah
ĠCour t
Ġsapiturut Ã©
ĠHyd ra
ĠKonstantin opel
estantun aken
ĠIndonÃ© sian
integ rasi
Ġkadha ulatan
ĠSalv ador
Ġnuwuh aken
ĠPangka jene
. ).
B ank
C R
C S
D ara
F i
G a
G ebang
H ist
J a
K O
K ub
K ON
L em
L ove
N us
P ab
P akaryan
S R
T ump
W id
b entuk
c os
d ent
d pl
f field
f ried
h ay
j ari
l up
m allow
p x
p ada
p berry
u ap
v ro
v ensi
y Åį
z ania
Î Ń
Ñ Į
Ġ ari
Ġ igu
Ġs ut
Ġp si
Ġp ukul
Ġk Ã©
at im
at engah
Ġm Ã¨d
ak inan
ĠK ew
ĠK aton
ĠK uwarasan
ur ungan
ĠS angka
ĠS udi
Ġn atur
Ġn epung
Ġdi ak
Ġdi alog
Ġdi undhang
ĠP L
ĠP anda
ĠP ower
ĠP abelan
ĠP etanahan
Ġw acana
Ġw idadari
or ak
eng aken
Ġng aton
Ġng itung
Ġng ungkap
Ġng acu
ant eri
el et
ĠB ara
ĠB ukan
ĠB entuk
ĠA G
ĠA us
ĠM iwiti
ĠM uch
ĠI owa
us ta
et u
Ġg anja
es p
es er
Ġ" âĢľ
Ġ( [[
ĠJ abung
ĠJ abatan
ĠJ Ã¨brÃ¨s
uw o
Ġj aÃ©
ĠD Ã©sÃ¨mber
ĠD ark
ĠD evi
Ġr Ã¨s
Ġr impang
Ã©n dh
ĠN asi
ĠL aboratorium
ĠR andh
ĠR ico
ĠR ebecca
amb Ã¨n
ĠG im
ĠG irim
ay n
ay udha
Ġkal engg
Ġkal ompok
Ġkal ender
Ġkal igrafi
ed isi
ha il
ri f
ri x
ĠF our
ĠF isiologi
Ã©sa in
Ã©r Ã©
Ġor k
Ġny ebrang
Ġsal ing
Ġsal mon
ip ik
ip ati
Ġper umahan
adh on
ti es
ig inipun
ĠE konomi
esi onal
ĠY ogya
Ġdig aringakÃ©
Ġngg edh
ĠAm pat
int ing
int ahan
ê¦ Ĩ
ĠPr ac
Ã©w ah
art osaken
Ġin ang
Ġin tr
la ve
Ġh aji
Ġpro gr
Ġant agonis
ĠV a
ĠDh okter
ĠDh uwurÃ©
engk ing
ĠPer Ã³n
Ġaw et
ow ono
ow ski
ĠAl ba
ind ra
19 42
Ġab u
Ġdik up
Ġgedh i
Ġro ket
ĠMar ch
ulo use
Ġdis engkuyung
Ġngr ewangi
eni e
Ġker angka
ulis Ã¨n
ĠBr ussel
Ã¨t Ã¨k
ĠSt ra
ĠSt udy
ĠSt utt
ilik on
Ġ8 50
Ġtum ind
ĠKar am
Ġber sa
Ġangg one
Ġkad al
ĠAng ier
Ġdij adwal
Ġpel aut
Ġndh ukung
Ġndh Ã©rÃ©k
Ġlel adi
iga si
Ġcar iyosipun
rap to
tif ikat
ĠKeb un
ĠKeb ayoran
ĠKor ps
ĠWan adadi
eth er
eth Ã¨k
Ġangka ra
ho i
Ġmet unÃ©
Ġrong g
ĠSo o
ĠSo em
An jir
ĠSh an
Ġsem Ã¨n
Ġpend eta
ĠPat ik
ĠQ in
18 0
Ġup as
à¤ ¯
Ġprod user
ach t
Ġdisi k
Ġpag uron
ju alan
Ġmat Ã¨ri
de z
ĠOr do
SM P
ĠKedh u
Ġpep ati
ĠBoy le
Ġkaj awi
Ġkaj uwaran
ĠFr ont
ĠKan or
dok teran
Åį shi
Mas ter
mas alah
ĠSar idin
ĠBen awa
Ġnambah akÃ©
Ġseb elum
Ġprot agonis
ĠCl uwak
kin son
ĠPet arukan
ĠSc or
Ġowah ing
Per usahaan
ĠPel ita
lit z
ĠHam ilton
Ġpanj l
ĠKel ing
Ġproduk tif
Ġpand emi
Ġpac u
Ġpandh emen
Ġsedh engan
Ġim igrasi
Ġdebut Ã©
ĠHa ur
ĠSil at
ĠSr uweng
Ġkompl ikasi
ĠCom al
Wan as
Ġgur unÃ©
ĠArj asa
Ġ187 3
ĠSub ali
Ġkaka isaran
Ġfr aksi
Ġmant Ã¨n
ĠLeb ong
Musi c
Ġkawigat osanipun
Ġ186 7
Ġngup ados
Ġmagn Ã¨t
kanc ane
Pak is
Ġbers ama
ĠLuc as
ĠWon osobo
ê¦¥ ê¦ł
Ġgendh is
ê¦² ê¦¤
Ã©mb ak
ĠPart y
bab agan
ĠSriw edari
ĠPlay er
ĠYa iku
Ñģ Ðº
ĠBir mingham
ĠCent ury
Ġalum inium
ĠBedh aya
Pandh an
ĠKac ang
ĠXII I
Ġkuth amadya
owi ec
ĠTrengg alÃ¨k
ĠKonf ederasi
Ġbudh al
Ġkimi awan
ĠCultur e
Ġmbed akake
Ġditerjemah ake
ĠLah ei
Ġub engan
Ġhamb urger
ĠKalit idu
Mari e
Ġspek trum
Ġdituj okakÃ©
Ġditembang akÃ©
ĠNagas aki
ĠDipl oma
yaw arah
ĠVika ris
ĠHons hu
Ġkabeg jan
ĠDeL onge
Tanggep ane
Ġigu ana
. [
7 50
B ern
F F
K um
K us
L um
L uc
P H
P erm
R awa
S uw
S emb
S ent
T ang
b un
e at
f al
g at
j ono
l al
m ik
p ap
r eta
r Ã©ntahan
Ñ ĭ
Ã© gan
Ã© mi
Ġd orsal
Ġd atheng
Ġp antai
en zo
en ovasi
Ġl ek
Ġl ugu
si sih
in ental
on avirus
Ġt awanan
as bourg
ĠK och
ĠS j
ĠS wan
ĠS chi
Ġdi ul
Ġdi go
Ġdi ukum
Ġdi gayuh
ĠP omp
Ġw usana
it ake
Ġng ati
el ode
ĠB angsal
ĠB PS
ĠB imas
il li
ĠA R
ĠA is
ĠI ron
Ġg an
ĠT at
ĠT art
ĠT re
ĠT angga
ĠT ingkir
es tan
ĠJ Ã©r
ĠJ ob
uw anÃ©
ol ina
ĠD ul
ĠD uduk
ĠD ander
ĠD own
Ġr ing
Ġr ik
Ġr ugi
ĠN agoya
im edia
ĠL ux
ĠL CD
ĠW ul
ĠW aka
ĠC angk
ĠC ron
Ġc eri
Ġc upu
ĠR ektor
eg ro
Ġdh Ã©k
Ġu yuh
ĠIn si
ha ya
ri dha
uh ada
ĠH BS
ĠH IV
ĠH orison
Ġdipun anggÃ©
ĠF au
ew ali
edh arakÃ©
Ġny uw
Ġny aran
Ġny awang
ĠU NI
ip pon
Ġper isai
og e
andh ung
uj ami
Ġdip andhÃ©gani
ic t
ĠE va
ĠO wah
ĠY in
ĠY ale
ĠY Å«
ata i
Ġsa udara
oh baru
Ã©w at
Ġkas uksÃ¨s
Ġsat wa
ĠV eron
umb o
awÃ© yan
Ġpen emuan
Ġpen asihat
ĠPer ez
aga an
lt on
ĠAl di
Ġpang olahan
ĠAn anÃ©
ĠAn dong
odh og
akan ing
Ġpad usan
Ġkl ebu
Ġ18 20
ĠMar in
ĠMar ten
Ġngr itik
imb i
Ġar ke
ath u
angs ri
Ġpeng etan
ĠBar isan
Ġsek it
Ġsek olahan
Ã¨t akÃ©
Ġsep eda
orm ati
pr akara
Ġpar uh
Ġtek stil
Ġkep Ã©nak
Ġkel emb
me e
Ġdipuns engkuyung
ĠNg asem
uri e
Ġsin onim
ĠSM K
Ġlel ayaran
Ø§ Ø¯
Pr inc
rat er
all us
ry s
unggal ipun
ungk id
Ġkam ot
Ġsen sor
Ġset ahun
Ġsas uwenÃ©
ean ia
Ġkons ultan
Ãª mb
Ġpany usun
Ġked aden
Ġpiyambak an
ĠDew antara
ĠPem impin
Ġkak iyatan
ĠCar iyos
ustr ator
ĠMad rasah
Kal it
Ġmod ifikasi
ĠOr t
ĠPas aman
Ġtran sistor
Ã¸ ya
Am erika
Ġnov elis
oksi dasi
ĠLa o
ĠKem erdekaan
ĠDi Biase
ĠMen awi
ĠAngg onÃ©
ĠKer eta
ĠCl inton
ĠNo or
ĠWis consin
ĠTer as
Ġdipunc awisaken
ĠDar ma
Ka uman
Ġmem edi
Ġsi ap
ĠHe ian
Kr amat
ĠSid empuan
Ġsil ang
edhiya kakÃ©
Ġeks trak
Ġditepung akÃ©
ĠTe am
alo gi
Ġte ologi
ĠTor ino
Ġpanggon ane
hid rasi
ĠHind i
195 4
195 6
ĠFer ry
Ġfr asa
ĠCon st
ĠWat uk
Ġ185 7
Ket ua
ĠlÃ¨r Ã¨n
ĠTri angulum
Ġgul ma
ĠMant ingan
ĠCep aga
Ph il
Ġdon at
ĠDum unung
ĠPe ak
Ġbangk it
ando si
ĠShar on
Ġben ik
Ben z
ĠEur opean
col or
Ġkud eta
Ġjuni orÃ©
ĠKau kasus
uasa i
bener Ã©
ĠRap pang
uger ahi
Ø§Ø ¡
ĠSund ance
Ġwont Ãªn
ĠAmpel gading
ĠFuj ian
Kac ang
ĠKarim unjawa
Ġgun eman
Ġterd apat
ĠTag alog
ĠbonÃ© ka
ĠPtol emy
____ ____
Ġpribad inÃ©
Ġproy eksi
ĠSukar no
ĠPunt adewa
Ġdisir am
Ġinfr astruktur
ĠRang ers
ĠÃĪs lan
Ġngleg ena
Ġpinit ados
Ġdikaw ruhi
ĠICA O
elode on
A B
A qu
B eng
E C
F er
G elar
J o
K ulon
M em
N ag
P il
R usia
S on
S ok
U m
W angsa
b apak
b ahu
c abang
g g
g ean
h ira
j uk
j ib
k las
k Ã³w
l umba
n ad
n ot
p ra
p uisi
p hia
q ing
r Ã¨
s oo
w am
x el
y adi
à ¨
à ¼
â ĪĴ
Ġ ip
Ġ ont
Ġ ãĤ
Ġs ura
Ġs olusi
ar kÃ©
Ġd ewa
Ġp uyuh
Ġk unc
Ġk otor
Ġk undur
at ta
Ġl inc
Ġl ambe
si sik
Ġm useum
am ili
ak iman
is ahaken
as so
ĠK uch
Ġb arengan
Ġb imbingan
ad em
ĠS N
ĠS usan
ĠS asanÃ¨sipun
Ġn ab
Ġn apak
Ġn akl
Ġdi dominasi
ĠP ent
ĠP itik
Ġw ork
em awu
Ġkang kung
ul awak
or akÃ©
or ta
ab Ã¨t
Ġng usul
Ġng oyak
ika ya
ant ine
ĠB iyÃ¨n
um Ã©n
ĠM angka
ĠM iz
ĠI v
us unan
et ic
ĠT elu
ĠT ogo
ĠJ asa
uw it
Ġj enang
Ġj empol
iy ung
Ġr Ã¨st
Ã©n emarken
ac ker
im Ã¨n
ĠL ik
ĠL ia
Ġpun ik
ĠC L
ĠC in
Ġc eng
Ġc amb
ĠR ud
ten tu
id ual
ĠG eb
ĠG ula
iw ahan
Ġdipun anggit
ot to
Ġf ungi
Ġny emb
Ġsal ak
ĠU trecht
ip zig
Ġper ancang
Ġper bandingan
Ġas sist
Ġdip asrah
Ġman isan
ĠE sc
ĠY uli
Ã¨k i
Ġsaj a
art is
Ġkab ung
Ġkab ijakan
Ġh ujan
ug g
ĠDh ar
Ġkr eta
Ġv i
Ġpang amatan
ĠAn nie
le h
arah i
asan ya
Ġmas ing
Ġdik et
Ġdik ongkon
Ġdik ancani
Ġsap isanan
Ġsap asang
Ã©ng kol
ĠCh art
Ġ5 000
ch ing
ust y
ust ik
Ġses epuh
oro jo
angs angan
und angan
indh a
Ġbal Ã©
Ġbal Ã¨t
Ġtr uk
Ã©l og
ĠSt andard
areng gean
Ġst upa
aris asi
ĠZ eal
Ġpar utan
Ġpar oki
agu ay
ĠBl o
Ġdipuns ebabaken
Ġdipunt utup
ell s
Ġkom andan
th an
andhi dhik
rap at
Ø§ Ø³
ĠWan at
Ġpend aki
undh uh
ĠAw akÃ©
Ġdim enang
eks ual
ĠPen yakit
ĠBal ongpanggang
Ġpamb eksa
14 4
Ġngen teni
ĠTr uman
ĠTh ree
ĠÙ ĩ
Ġpag awe
Ġmul ane
ku il
Ã¥ sen
ĠDa iri
Ġgeg andh
Ġmang idul
ĠSy l
ĠKep ohbaru
eli x
ĠPl asa
Karang s
Ġdin amis
Ġil ustrasi
uas ani
ĠGar udha
ÙĬ Ùħ
Ġfungsi nipun
bit ung
Ġfisi ologi
ĠSar awak
ĠKris ti
ĠSen adyan
ĠPert amina
ĠKes atuan
Ġmit r
ĠMat s
Ġis tiadat
ĠRep ublika
Ġdipunc epeng
ĠKel apa
Ang katan
Ġstruktur al
ĠGu atem
Ã¶ l
lem ent
ĠMatar aman
Ad am
ĠMangk ono
Ġkand idat
old t
ĠÃ© yang
ĠGl adri
yal ancana
itasi pun
Ġngrampung ake
bal ung
Ġ187 9
Ġkandh el
Wiwit anÃ©
ĠPanc ur
Ġkanc ane
ĠLeb aksi
ĠAf ro
ĠQu ebec
Ber g
ÃĪ s
Is ra
Ġweteng Ã©
Ġdiad aptasi
Tanjung sari
Ġov al
Ġtar get
Ġkakung Ã©
irah at
Kas us
ĠTir to
ĠHill enburg
Ġmisi onaris
US S
Kaw it
inder ella
Ġbangk rut
Ġkekar one
Ġtir am
Beb arengan
Ġkendh ali
ĠFranc es
Ġpros Ã©s
Ġnerbit ake
Ġnukle us
ĠAug ustus
ĠOli via
ĠPir ngon
Ġngra ih
Ġdw ija
ĠJim my
Ġtro mb
Ġom ongan
ĠsÃ©d anÃ©
Ġengg on
ĠLeon ardo
ĠDhukuh seti
Ġmbukt Ã¨kakÃ©
ĠJatin om
ĠrÃ©p rodhuksi
ĠCim ahi
Ġnen ek
ĠAff andi
Ġngek laim
Ġdiras akake
ĠPom erania
Ġtomb ol
Ġdipert al
ĠQueens land
Jatis wara
Ġfung sional
Ġwrag ad
ĠMera uke
A yat
B udi
C andi
G I
G il
G ran
G ram
H om
J uru
K in
K itha
L emb
L ubuk
P ai
P rodhuksi
P amarÃ©ntah
R i
S or
S hi
S tor
S impang
T l
T angg
T au
W ol
c ess
g antara
h Ã¨ng
j akarta
j emahan
k W
m anÃ©
p aling
s udi
t anggal
t engen
t uwuhan
w er
w ol
x iang
É ĳ
Ø ¥
Ġ ajeng
Ã© mp
Ġs uh
Ġd okter
Ġd unia
Ġp Ã¨n
Ġp ustaka
Ġk umbang
al ami
at ung
Ġing gris
Ġl ekas
Ġm ayang
Ġm upang
er ian
am oto
Ġt Ã¨
Ġt imbul
Ġt anggepan
Ġka sa
Ġb rah
ĠS atur
ĠS uhu
Ġn awar
Ġdi itung
Ġdi utus
ĠP ud
ĠP ucakwangi
Ġkang o
ab l
ab y
aka ian
Ġng undur
el at
ĠB ong
ĠB ahu
um un
ĠM Ã¸re
ĠI UCN
ag awa
et in
et ia
ĠT ed
ĠT ina
ĠT ersana
ir ian
ĠJ ero
ĠJ ambu
ĠJ apah
uw eni
Ġj Ã¨j
ĠD awe
Ġr amp
Ġr enc
Ġr ubah
Ġr angking
ac ter
ĠN akula
im is
Ġ2 80
ana o
ĠL ut
ĠL iwat
ĠL ever
ĠL estari
sa fah
Ġpun c
Ġpun dhak
ĠW ew
ĠW ei
Ġc ast
Ġc atur
ĠR ut
ĠR id
ĠR abi
os fer
ĠIn doc
ĠG uj
adi ah
ud inÃ©
ij olan
ay man
ĠH j
ot ti
Ġf e
Ġsak ral
ĠF un
tan ah
Ġny ilih
Ġny awisaken
Ġsal aminipun
og rad
adh ung
ob r
Ġpr anyata
anti c
Ġman ufaktur
). "
ĠY amin
Ġsalah sijinÃ©
ec e
Ġsa ikine
end ing
int as
Ġin tensi
Ġdit ambani
Ġ3 40
st rong
Ġh yp
Ġsat e
ĠV irus
ĠPer an
aga zen
ĠAl un
Ġv ena
Ġkul tivar
odh ak
le ft
Ġngl anggar
Ġpad at
Ġan asir
rop oda
Ġdik el
Ġsar ung
Ġsar upa
ĠCh er
Ġdis aran
Ġdis erah
Ġses uk
ĠAg nes
Ġjam anipun
Ġuk ir
ĠZ ion
ĠZ ambo
pr astawa
Ġket aman
Ġpas uk
Ġanggo tane
Ġdipuns am
ĠAd il
ĠMan agement
Ġpel indung
ĠPol ewali
Ġdipunt unjuk
Ġdipunt etepaken
ĠMas sa
ĠKor an
mad ja
ĠBanjar sari
ĠRom sdal
Ġkem ih
Ġkem ajuan
ĠSo ep
Ġ13 2
ĠTan zania
Ġand alan
ĠMin yak
Ġpend ek
Ġkasil Ã©
Ġkons umen
Ġpes antrÃ¨n
Ã¨p Ã¨r
ĠPem er
usu ar
ĠLi ang
Ġmodh al
ĠSuka reja
ĠPal u
ĠKa uman
ĠBo ot
ĠBab irik
ĠAustr onÃ©sia
ĠAustr alis
Ġdipunl aksanakaken
Ġjero an
ĠKh alifah
Ġsosial is
ĠEl las
Mas kapÃ©
Ġur in
Ġur anium
ĠKet anggungan
Mar k
Ã¨st ina
itur gi
let t
Ġprot es
ĠDen nis
Ġmel ayu
ĠHam ka
Ġpanj aluk
ĠTer p
uti ara
Ġbel iau
Ġpac elathon
Ġteg angan
ĠKart ika
ĠtÃ¨k nis
ĠLou isiana
Car iyos
ago an
Ġpur w
Ġrep utasi
ĠBag as
Ġ187 5
ĠMor owali
Ġdel ta
ĠMand iraja
anth Ã¨ng
ĠArg Ã¨ntina
195 2
Ã¨b el
Ġdha erah
Ġditerbit kÃ©
Ġsamb ungan
Ġbet ah
Ġbers enjata
Purw adadi
ĠMary land
ĠGa ul
ĠBud dh
Ġkedh aton
ĠChe ung
Ġnyer itakakÃ©
Ġpuj ian
evel t
ĠPersi b
ĠNik olas
ĠNag arak
ĠOc ta
Ol impiade
Ġdek orasi
Ġgladh en
ĠAdministr atif
ĠGab riel
ĠRoman esque
Ed ward
Din asti
say uran
Ġsekab ehane
Ku il
Ġdisar ujuki
Lar en
ĠSci ences
Ġund angan
adil uwih
Mart in
Austr alia
ulaw enthah
kadh emi
adel phia
Ġnglanc arakÃ©
ĠNorm andia
inema Sc
Ġamat ir
ĠHein rich
ĠSans kerta
ĠSamud era
Ġdicrit akakÃ©
Ġeksperim en
ĠPerse us
Ġsakiw ateng
Ġdiengg oni
gosi asi
Ġpanged uman
ĠDongg ala
ĠPatik raja
ĠCron quist
à¼ ĭ
ĠZeal and
B ut
B os
B ig
C el
J ar
J angan
K antor
L E
M angk
M gr
N usa
P utra
S Ã©l
S TA
T ha
T latah
T ujuan
T ER
a an
b akala
f ast
g edhÃ©
h ilan
i x
j p
j el
j anan
k ed
m ine
n os
p artikel
q ua
r ati
s ec
t ong
u atan
v acano
w anda
z in
z ul
Ġ ung
Ġ Ã©nt
Ã© tas
Ã© ria
Ġs hi
Ġs umbu
Ġs yn
Ġs anggar
Ġd rive
Ġp Ã©ng
al ita
at akÃ©
en z
Ġl amb
Ġl abuh
Ġl iar
si ri
Ġm aling
ĠK uru
ĠK angkung
ĠK operasi
ur ik
Ġb unga
Ġb ausastra
ĠS R
ĠS ex
ĠS lavia
Ġn empel
Ġdi usulakÃ©
ĠP E
ĠP ungg
ĠP ane
Ġw angs
ul awang
it akÃ©
or ing
Ġng uw
Ġng eg
Ġng Ã©tung
el unÃ©
ĠB ai
ĠB ont
ĠB eda
ĠA FC
ĠM Ã¡
ĠI wan
us eri
ĠT unjungan
ĠJ iwa
ol ok
Ġj e
Ġj eron
Ġj roning
aj ati
ĠD amar
ĠD ee
ĠD FB
eb le
Ġr adhang
Ġr pm
im Ã¨ter
Ġsing kat
ĠW ith
ĠW age
ĠW eru
ĠC ic
ĠC amel
ĠC ath
ĠC IF
Ġc har
Ġc andi
ĠR ez
ĠR eca
id on
ĠG aj
ĠG ork
ud ung
emb ug
Ġdipun nam
Ġf olklor
Ġsak si
Ġkap ustakan
ĠF ak
ĠF eder
ew o
eneng anÃ©
Ġny alur
Ġny enengakÃ©
ĠU na
ip ir
any an
any ong
any ari
Ġas asi
anc ur
Ġdip ent
ic ot
ej angan
ec ture
end ro
Ġnd alu
angk is
Ġ3 10
st ar
Ġkab ikak
la ut
Ġh elik
Ġpro stat
Ġsat erusÃ©
ĠV on
ĠV ari
ist y
Ġnj enengi
Ġkon sistensi
ĠAr ena
ĠAn ast
19 39
Ġwar as
rah ana
tu a
est orasi
ard an
ĠMar cus
ust ard
und u
Ġat ine
ĠSal em
Ġtum is
unt ala
Ġter g
Ġter apan
Ġter tentu
ĠKr akatau
ĠSum ur
ĠBat ung
Ġkel uar
Ġkad adÃ¨n
Ġkur ator
Ġdipunp indhah
Ġdipuns aj
Ġdipuns usun
ĠAng lo
Ġsin ematografi
Ġpik ol
Ġgel ut
ĠAs ale
Ġdij aluk
Ġpir sa
ĠKap as
ĠKap oor
ĠIt s
ĠSul ang
Ġmar agakakÃ©
An atomi
unc ang
Ġsen am
ĠPang yasa
ĠPat ebon
ĠAk ibatÃ©
ĠAw ak
ĠBany udana
Ġaj ur
eks anan
ĠtÃ© or
ĠKali ori
ĠPen erbit
lor asi
ĠCar ey
ĠEn ergi
ĠMus tafa
Ġpal em
ĠPal ace
ĠSad angunipun
ĠSy uhada
ĠIr awan
Äģ r
ĠKot ag
men awa
Ġê¦ Ĺ
Ġlemb u
Ġdin ominasi
Ġpers embahan
ĠEl is
ĠJohn ny
Ġbl umbang
Ġsej atinÃ©
ĠKet awang
mas jid
Mar s
ĠBen jeng
ĠKer ala
Ġseb agian
ĠKe ith
ĠBe aut
luk isan
Ġmlig inÃ©
Ġteg ak
ĠRe aksi
arap i
Car l
Ġmadeg Ã©
Kap al
Ġbebr ayanan
Ġte ori
Ġoksi dasi
ĠMand iri
Ġngad ek
ĠSed an
kus en
ĠGal il
ĠÎ ±
Ġ186 4
Ġ186 8
Ġrah ib
ĠÃ¨lÃ¨k t
ĠSeb erang
Ber ita
ĠFor est
ĠSouth ern
Ġgug usan
stad t
Ã©j Ã©
ĠBak umpai
ĠProd uksi
Ġded unung
Ã©mb er
ĠPraj urit
ĠPungkas ane
ĠKert ak
Ġgodh ok
ĠMeg atron
ĠPrim e
Ġpros edur
ĠPramb ors
Pangg onan
ĠPeny anyi
Ġbud ayawan
ĠGot land
ayo ga
ĠKil en
ĠLap isan
ĠmÃ© ga
ĠSag ed
ĠMeng wi
ĠRod in
Ġrok Ã¨t
ĠKau angan
ĠAndre a
UM N
Ġident ik
Gro gol
ĠSoed irman
ĠRawas eneng
Ġbus ur
Ġdew e
Ġngin ep
ĠTris akti
Ġbaj ing
Ġlump uh
Dhi alÃ¨k
Polit eknik
Asil ing
adhas lintang
ĠfÃ©nom Ã©na
Ġmbl edh
Cat atan
Ġnurut i
ĠHed mark
Ġdimupangat akÃ©
Ġmunisip alitas
Ġalp ukat
Ġabs trak
Ġpidh ato
ĠSoekarnop utri
ĠRoos evelt
ĠpratÃ©l anÃ©
Ġeksi s
ĠprÃ©s Ã¨nter
Ġantarik sa
ĠGener ation
ĠBorob udur
ĠWerk udara
ĠGuatem ala
B T
B ah
B au
B Ã©da
B rit
C er
C im
D oc
F ri
F estival
H asan
J osh
K M
K ah
K op
K ados
K ast
M os
M ay
M ata
M Ã¨i
P ot
P aris
S ik
S ku
] .
b eck
f are
f aktor
g is
h om
h ami
k un
k urang
l atan
l aba
m esin
n itz
o gi
p any
r Ã¨s
r ambah
t oro
u asi
v ari
w eb
w ick
w oyo
× ľ
Ġ unggah
Ġ arane
ang or
Ã© th
Ġs idang
Ġs teroid
Ġd ingg
Ġd egan
Ġp lan
Ġp ori
un ta
al pha
en y
si di
Ġm ega
Ġm orfologi
Ġm Ã©nÃ©hi
am inasi
in u
Ġt umbuh
as o
ĠK rom
ĠK isah
ĠK now
Ġb ol
Ġb olah
Ġb urger
ad r
ad in
ĠS ida
ĠS umbang
ĠS ekaran
ĠS ardinia
Ġdi ombe
ĠP R
ĠP agu
ĠP antai
Ġw ara
Ġkang m
ab Ã©
do men
Ġng udi
ika hi
el ih
ĠB ej
ĠB idang
ĠB iyasa
ro me
ro logi
ĠM D
ĠM ayoritas
ĠM ello
ĠM ungkid
ĠI PA
Ġg Ã¨g
Ġg arap
Ġg abah
ĠT ua
ir en
ĠJ our
ol ip
ap h
ĠD ow
ĠD ingin
asi yah
Ġr inci
Ã©n tas
ĠN af
ĠN alik
ĠL ed
ĠL ati
ĠL ake
ong ok
ĠW edhung
ĠC H
Ġc umbana
ĠR unner
Ġdh adh
Ġu baramp
id el
id ia
ĠG X
ĠG ayam
ĠG ayo
ĠG ondang
ĠInd iana
ed en
ed ak
ĠH use
ĠH ome
ok umÃ¨n
Ġdipun olah
ot ing
isi si
Ġkap erang
Ġper kawinan
ter ol
adh aran
tr itis
Ġdip engaruhi
Ġdip asangi
ic on
ig er
ĠE rit
ec ahan
Ġsa Ã¨mper
Ġsa enggon
Ġsaj arawan
ê¦ ¦
Ġin sul
Ġdit umbuk
Ġkar emenan
Ġmb usak
Ġsat emenÃ©
ĠV lad
Ġkr anjang
Ġnj aban
uc ur
Ġpang embang
Ġan ane
Ġkl umpukan
Ġ18 65
est on
Ġgedh ene
Ġsap ingg
ch us
Ġmain Ã©
ert z
Ġsup ermarket
Ġsan ak
Ġpeng amat
Ġtet anduran
Ġbal e
Ġtr ap
Ġsek uel
ĠSal ya
ĠSal iyane
ingg ahi
Ġket elu
war ung
Ġangg epan
Ġdir ewangi
Ġ17 55
ĠAng likan
Ġgel atin
ĠSel amerta
Ġpel ayan
Ġndh apuk
Ġob servasi
yar akatan
Ġlem ari
Ø§ Ùĩ
Ġpat ri
Ġpert amanÃ©
Ġmar em
ho ul
ey asan
ĠSh aw
Ã©rang anÃ©
Ġsel atan
ĠPat ah
abr ang
ĠQ ian
Ġkes epakatan
Ġaj ar
our s
Ġjal ak
ĠBal Ã¨n
Ġmer pati
à¤ ²
Ġser ver
Ġam onia
eo us
Ġsed ang
ĠBer ita
ĠKl opp
ĠPas casarjana
Ġang on
Ã©b Ã©t
ĠKarang nangka
elu arga
Ġsik ir
ĠKan nada
ĠAir es
Ġnem okaken
Ġpl ancong
ĠSi erra
ĠAt om
hy l
ĠIst ana
ĠDi arani
Ġ27 0
filem an
Ġel ek
ê¦¸ âĢĭ
akr yan
ĠPel aksana
bi ologi
ĠOl ga
ĠAnt ropologi
iter ia
Ġadi pati
Pan alit
NA S
ĠRam anipun
ĠFran sis
zo ikum
dow o
Ġpac arÃ©
Ġgunggung ipun
Bi ologi
Ġus ulan
Car akan
Ġdidh ahar
Ġbapak ne
ÃŃ k
ĠMe ut
ĠØ§ÙĦ ÙĦ
ket t
Ġstatus Ã©
ĠPo int
Ag der
ĠBon jol
ĠKut o
wart s
ĠÎ ¼
kup u
ĠUd akara
Ġkulawar gi
Ġdu o
yc lop
ĠUl ujami
Ġ185 4
ongg ol
Ġsy stem
Pag unungan
Tegal sari
pro sÃ¨s
Set u
ĠTo er
ĠTo ulouse
ĠCr uz
ultur al
ĠAv iv
Ġdiam Ã¨ter
Ġlep at
Î¿ Î½
ĠSec ang
hat tan
ĠUS A
Ġhar mon
Ġterb itan
ĠVi Ã¨tnam
ĠDal ton
Ġdrum mer
Ġpil ar
Ġpamr entah
ĠKub u
Az har
Ġbes ut
ĠEk sp
Pap ua
Dir ektorat
Ġlamp ahing
ĠCenta urus
Ġsaks ampunipun
ĠSeka wan
ĠSina osa
ĠTeg uh
Ġdep resi
Ġjan in
Ġdipunka sil
ĠBaur ena
ĠBaur eno
Ġdiras akakÃ©
Polit Ã¨knik
Mes ki
Ġlangg eng
Ġdimanfaat akÃ©
ĠBurg und
Ġpangay om
Jam ur
ĠBle ga
Ġtapi oka
Ġnglump ukakÃ©
ĠSlav ik
Ġcol span
ĠLomb ardia
Ġbundh er
akamb a
Ġsanginggil ipun
Ġpath okan
ĠLimb urg
ĠCatal ogue
ĠWana yasa
ĠEti opia
ĠStep han
ĠLuz on
ĠkÃ©c ap
ĠFuku oka
kathah ipun
amorf osis
ĠNum for
arij aksa
ĠNahd latul
vro let
inemaSc ore
ĠHuse in
A man
A pa
G ag
H ubungan
J emb
K L
K ak
K ong
K and
K anjeng
L akon
M am
P us
P opulasi
R ef
S ay
S eka
S imp
T anggepan
V irus
W ulan
W adhuk
c ang
d ani
d oria
f on
g eg
h il
j ai
j ambu
k ut
l aki
l umrahÃ©
l Äħ
m aj
n dh
n ic
n Ã¥
p indhah
t om
t ografi
t ida
v on
w angun
y ut
Ê Ĭ
Ġ ono
ng an
ang aken
ing it
Ã© on
Ġs M
Ġs usun
Ġs war
ar ut
Ġd ah
Ġd ev
Ġk us
Ġk upat
at wa
Ġing g
en reng
Ġl imbah
Ġm y
Ġm Ã©h
Ġm icara
Ġm iyosipun
er ap
er esan
am ara
in ik
in akÃ©
ik uti
ak or
ak ke
ah iran
Ġt ag
Ġt enan
Ġt ungku
aw idya
ur janan
ad ak
ad ung
ĠS anti
ĠS Ã¨l
ĠS api
Ġn emp
Ġn iku
Ġn apa
Ġdi usir
ut ar
ĠP angk
ĠP antun
ĠP arenggean
Ġw id
Ġw isa
Ġw awan
Ġkang mas
Ġng indh
Ġng ambang
Ġng endhal
Ġng ertos
Ġng inf
ant aran
ĠB endh
ĠB ungah
il on
us ah
et il
ĠT ik
ĠT us
es hi
Ã¨n sus
uk ulan
ĠJ ang
ol asi
Ġj aya
ĠD ra
ĠD od
ĠD oo
ĠD eddy
Ġr edi
Ġr abuk
Ġr adang
ep po
ac ik
ac unan
ĠN ice
ĠN ike
ĠN acional
ĠL au
ĠL iyanÃ©
ĠL awu
ong gok
ĠW ern
ĠW ukir
ĠW igan
ĠC rit
ĠR encana
Ġdh Ã¨wÃ©
ĠG iyanti
and el
ij s
ij awa
ĠH in
ĠH ir
ĠH ud
ĠH ongkong
Ġdipun Ã©wahi
ra ine
ot ografi
Ġf akta
ent es
op ori
ip ut
Ġsaw Ã©t
adh epan
andh ap
Ġas uransi
Âł Ġ
Ġpr acaya
anc em
Ġdip ara
ig ami
eka man
Ġdig antung
ĠAm ba
oh Ã©
Ġh epat
Ġh erbal
Ġpro klamasi
ĠV J
ist e
engk ul
engk ol
Ġkat etepaken
Ġkr ambil
Ġnj awab
Ġsam ana
Ġsam angke
ov i
emp al
uc o
Ġv as
Ġv oli
ĠAr chi
ĠKal asan
Ġpang ad
19 10
19 46
endh ing
Ġdik um
Ġsap rÃ©nÃ©
Ġdib er
re al
re kang
Ġsab rang
Ġar it
ori z
und e
indh ahan
ĠPur ana
Ġtel at
ĠGr eja
Ġdic ipt
ĠKar yanipun
Ġmal aria
Ġkep iting
Ġkados d
Ġ10 20
Ġdir usak
if enol
enc ong
Ġ17 5
Ġ17 89
Ġpas eduluran
Ġkur ma
ĠNg astina
Ġgel ang
Ġgel aran
ond asi
kt ik
ĠMas alah
ebat inan
unc Ã¨n
Ġkam ulyan
Ġset i
Ġkh us
ĠAk ers
ili asi
Ġwig atinÃ©
Ġkali um
erm is
ĠMah mud
Ġwit Ã©
ĠDew a
Ġmer angi
Ġmer damel
Ã¨p Ã¨ng
ĠCir c
Ġmr iksa
Ġke adilan
Ġpemb uka
te ok
Ġart istik
Ng ab
Ġmul ia
Ġdipunb eta
Ġdipunb iyantu
ĠPad ha
alam anÃ©
Ġmang si
16 0
uwa it
ĠÃ¨l emÃ¨n
ĠKan al
Ġê¦ §
ĠKas us
ret agama
Ġmur ih
Ġpl um
ens or
ĠAp us
Ġdipunl antik
Ġdipunl ampahaken
Ġfil e
ĠKem usu
ĠPa ing
Ġdian ut
ĠKur Ã¨s
Ġdipunk ep
ĠBen z
Ġsaper angan
ĠKe adilan
ĠSet asiyun
ĠHam id
Ġtuk ul
ĠAnt artika
ĠrÃ© ka
ĠBas que
onc Ã©
Ġpenerb itan
Ġ188 3
Pur wareja
ĠSr imulat
ĠSir ilik
ĠSumb ing
Ag ustus
Ġgal ak
Ġvid io
ĠEr win
ĠGo a
Ġsr enggala
ĠBh re
195 1
ĠNam ibia
Sab anjurÃ©
ĠgÃ© om
rÃ© gion
resi denan
iko esoemo
ê¦© ê¦ª
Ġthukul Ã©
Pem ilu
Ġent itas
ars ono
Kom isi
Ġrup iah
UN G
erk ir
ĠPri ze
ĠLuc ky
ĠVol ta
ĠMaz mur
isk usi
ĠpagawÃ© yanÃ©
ĠIndo siar
Ġpsik ologis
Ġdipunter jemahaken
Ġdipunpr acaya
Ġwah yu
Mel ayu
ĠShe ffield
IT ES
Ġbud ak
opsi da
Ġdal anan
ĠSop hia
Ġasm ane
Kag iyatan
Kebon agung
ml aku
Ġfilosof is
Ġnalik anipun
ĠAmer ica
ĠIA TA
ĠÄ Ĳ
Fran k
Ġtaj uk
Ġkosm etik
musi k
ĠProduc tion
ÙĢÙĢ ÙĢÙĢ
ĠRegi on
ĠDiw ek
Ġlaj ur
ĠOmb en
Ġkerj anÃ©
Ġkepem impinan
Ġmisteri us
Ġtuju anÃ©
ĠSeti awan
ĠDora emon
Ġkolon Ã¨l
Ġserb uk
Ġdisk usi
angkas bitung
Ġrej eki
ĠSrik andhi
ĠPsik ologi
ĠEin stein
ĠTala ud
ĠKrish na
Ġtoy anipun
ĠBimas ekti
ĠLever kusen
jp g
ĠGork y
B iy
C as
C emp
C AR
D E
D id
D Ã©wa
D esa
H u
J el
K aca
L eon
N G
O h
P ierre
R ing
S ah
S erial
T abel
b ing
b ukti
c ur
d Ã©ning
f en
g oreng
j ell
m yeon
p itik
q a
s uki
t ak
t aman
v us
v ana
w u
w orth
y unÃ©
É Ĳ
å Ń
ing aken
Ġs ungai
Ġs Ã©m
Ġp ian
Ġp impin
Ġp ondhok
Ġk ov
Ġk Ã¨ng
al er
en teni
Ġl Ã©lÃ©
Ġl etak
Ġl aju
Ġm iw
Ġm Ã©ng
in aken
ik ula
Ã¨ a
Ġka uripanÃ©
is trasi
aw isipun
ĠK ucing
ad s
ĠS tu
ĠS ampun
ĠS co
ĠS ubah
ĠS BS
ĠS now
Ġdi in
Ġdi gayutakÃ©
ĠP ont
ĠP arÃ©
ul aris
or okan
aka kÃ¨
dh uk
Ġng impi
Ġng ertÃ¨ni
el en
el ompok
ĠB ae
ĠB uwono
il as
il ya
il lah
ro st
ro sis
ĠM I
ĠM ani
ĠM Ã©i
Ġg ep
Ġg ent
Ġg Ã¨s
ĠT M
ĠT os
ĠT ub
ĠT Ã©g
es ut
es sional
ir ut
Ã¨n Ã¨
ĠJ eong
up iter
ĠD il
Ġr encan
Ġr ambutan
ep pe
ĠN it
om ayor
im anan
im antara
ek uth
ĠL I
ĠL l
ĠL agi
Ġpun iku
Ġc amp
ĠR osi
ĠR ambut
eg ang
ten a
ĠG ed
and s
Ġkal ian
Ġkal eh
ha q
Ġdipun ra
gi an
anj ungan
alika jar
ĠU ya
ip i
og g
ej uluk
int ung
ĠPr aha
Ġdit el
Ġ3 30
Ġh Ã¨rbivor
Ġsat ung
ĠV ancouver
umb oldt
ĠDh Ã©nemarken
man ungsa
Ġkat amtu
ow ok
Ġkr iteria
Ġnj elasakÃ©
oc or
Ġv akum
ĠAr ang
Ġpang isi
Ġngl alu
ast o
Ġ18 49
Ġdik andh
olo id
ersi l
Ġngr am
Ġ6 50
ump a
ring sing
Ġtr em
ĠSal e
Ġtel ekomunikasi
ĠGr ay
Ġtuw in
ĠÃ ¥
Ġ8 60
Ġkag awe
orm at
Ġber ikut
Ġket iga
av e
av er
Ġbeb an
if ul
ĠBl uto
Ġdipunp ejahi
Ġdipuns uwun
Ġ12 2
ena zah
awar dhana
Ġpel ataran
Ġpir embagan
ĠKap ten
Ġmil ai
Ġpul ih
Ġpat hi
Ġsistem atis
Ġlor Ã©
ric ia
las s
Ġkem angi
az im
ĠAw ayan
Ġgl ik
Al lah
ou v
Ġdr amat
ĠMah arani
Ġser um
ĠTr ump
ĠMus e
Ġbin atang
Ã¥ k
Ġdipunb ekta
ĠPam r
ĠPal Ã¨stina
ĠPad atan
ampil aken
ĠKam ajaya
Ġa er
Ġsir am
Ġdhi alek
ĠDr iyar
ens asi
ĠAnd rÃ©
ĠSch alke
ĠEl ect
ĠCil egon
Sal ajengipun
Ġmeng aruhi
Ġsej umlah
ĠKer tas
sh mallow
Ġel evasi
Ġdipunsebat aken
Ġmut iara
Ab d
ekel an
ÙĪ ÙĦ
Pan anggalan
Ang gr
rik san
ĠÃ©w on
ĠUmum Ã©
lem ah
ĠLou vre
ĠMul ud
oris ontal
ĠCor ona
Ġla utan
arib awani
ĠÐ ľ
ĠSe ine
Ġkilom eter
tic al
ĠAst ambul
Ġoksi gÃ©n
Ġnet epi
ĠMil itÃ¨r
ger akan
Ġcel ery
Ġcel athu
Ġnganc am
Ġperc obaan
ĠMir it
rab on
Ġcaket ipun
ĠNa o
anga an
ĠVic ky
Ġkup iya
ĠTri o
ĠBandh awasa
sat riya
á» ĩ
ĠTet andhingan
Ġgul ungan
Met ro
ĠTrans formers
ĠKedhung adhem
Ġpanemu an
Ġuj ug
ĠSamb eng
Ã©mb ang
organ ik
Ġnampil aken
ĠDay e
ÅĦ sk
Ġdimain kÃ©
ĠKert ek
á¸ ¥
ĠNag asari
Ġkapr ac
Ġpersi yapan
Ġngras uk
ĠMeng anti
Ġprim ata
ĠSev en
ĠmÃ¨n Ã¨hakÃ©
Sil silah
ĠMaur ice
ĠMarga yasa
Ġkontr as
utah ake
ĠZe iss
raw ungan
ĠPari gi
Ġpid ana
ĠRegi onal
Ġtrop ika
Ġboy band
ĠRand ublatung
ĠAlexand re
Ġtuju ane
Ġprak iraan
Ġnaf su
Kalim antan
igg ins
Ġeuka liptus
Hab ib
Ġdicar itakakÃ©
Ġnggeg irisi
ĠTuc ana
ĠUtsman iyah
ĠSot omayor
Ġhibr ida
Ġsensi tif
Ġantib odi
hog unan
Ġmratan dhani
ĠTechn ology
ĠParah yangan
ĠJayad rata
ĠStutt gart
1 000
A ran
B ambang
C y
D inten
E ug
E ks
M agn
N O
P aku
R ic
S ari
S anta
T amp
T ahu
U U
Y ogyakarta
b urn
c ell
f ek
f era
h of
k elas
k opi
l awan
m am
m ore
m olekul
p erang
q in
r aha
r ena
s osis
t os
z es
± ÙĦ
Ç İ
Ù ļ
á ®
Ġ Ã¨d
Ġ ãĥ
İ le
ka j
Ġs amar
Ġs uluk
Ġd ubur
Ġp esi
Ġp Ã¨t
Ġp Ãª
Ġp oto
un ingan
Ġk Ãª
Ġl ig
Ġl ayangan
si eur
Ġm ast
Ġm angga
Ġm Ãª
Ġm onster
am iwa
Ã¨ sa
Ġt aling
Ġt our
Ġka ancam
is rawa
ĠK ekar
Ġb ac
Ġb olu
ĠS ebab
ĠS utradara
ĠS utra
ĠS astro
Ġdi ra
ĠP ala
ul ukan
or do
Ġng eraih
ika ra
ant han
ĠB iy
ĠB ina
il s
il us
ro mi
ro ugh
ĠM ek
ĠM ud
ĠM awar
ĠI da
ag alan
Ġg unakake
ĠT ant
ĠT epus
es land
ĠJ ol
uw en
uw id
ap ukan
Ġj ingga
Ġj ihad
ĠD esi
Ġr it
ĠN er
im ara
ĠL isa
ĠL oka
ĠL ex
ĠL imbangan
ĠW edh
ĠW art
ĠC C
ĠC art
ĠC lo
ĠR onal
ĠR ejo
ĠR ica
ĠR itual
ĠR hein
ĠG ug
ĠG adis
ud ic
ay asa
ay oh
ĠInd is
ed ian
iw ang
ĠH es
ra ut
ot r
isi ki
isi lin
onten an
Ġkap asang
Ġper empuan
ungg angan
Ġpr angkat
Ġdip rab
Ġdip rakirakakÃ©
esi f
ĠAm al
ĠAm anda
od ifikasi
Ġnd e
Ã©w ati
angk ong
Ġkab entuk
Ġh ol
Ġpro b
Ġpro tozoa
Ġpen erus
ĠDh ukun
ujud an
Ġkat up
ĠAr c
ĠAr k
ĠAr is
ĠAr sitektur
ĠAr nold
lan akan
Ġum ob
eh at
ast uti
asan ing
of on
of isika
est or
est inasi
Ġdik ritik
Ġdib usak
ĠMar ino
Ġ5 50
re i
Ġses ing
Ġngr iku
Ġngr umat
ori es
kar ang
erb u
Ġdiw adhahi
Ġdiw utahake
Ġad as
Ġad alah
Ġsek ien
aris sa
uari us
ort on
Ġcilik Ã©
ĠBat awi
Ġkel ir
enc eng
Ġpas angg
Ġkuw alik
Ġnam un
ĠNg anggo
ĠMan hattan
Ġkomp onen
ond er
ond uktor
etan ol
Ġob ahing
ĠMas yarakat
ĠKap ur
Ġres p
ĠKeb omas
Ġpat ogen
ĠPro ton
ho use
ĠPar aguay
In f
Ġpol isakarida
Ġked ad
aus e
our ce
ĠKali angkrik
ĠPen j
ĠBal ung
Ġser tifikasi
Ġpamb iwara
Ġisi n
ĠTr im
eme us
ĠTh er
aca ille
Ġkej uruan
ĠSam s
Ġz aman
ĠBer d
de hida
ade ake
ĠSer irit
ĠPam aburan
ĠPal akarta
ĠPad emawu
ĠKam us
ĠKedh aton
Ġmang Ã©tan
ĠPak pak
ĠKep ulisian
asin ing
Ġsumber Ã©
Ġkek erasan
ĠKarang rayung
ĠAnd es
Ġdin ane
Ġgetih Ã©
ĠSaj ian
ebr ayan
Ġpak empalan
Ġdibabar ake
dong kal
St atus
Pro t
Ã¨st ri
Ġpucuk e
ĠKol eksi
Pang Ã©ran
ĠPel ajar
ĠPel estarian
ĠMer ak
Ġes uk
Ġnget utakÃ©
ĠMon et
ĠChar lotte
Karir Ã©
uch us
ĠMak kah
Ġus ing
Ġim aj
ĠAz hari
ĠSid ayu
Ġkor onavirus
ĠStr asbourg
AS T
ĠÃĪ fÃ¨k
ĠGeor ges
Ġped alaman
Pur b
Ġeks klusif
Ġrambut Ã©
Ġkakuw asaan
ĠEm ir
dr en
Ġinter val
Ġpenj aga
ĠLib eral
ĠTah unan
Ġngand ika
Ġilang Ã©
Bal ung
ĠLeb anon
angsul aken
Keb un
Ġmandheg ani
ĠbÃ¨nten ipun
Pol en
ĠKul awar
abil itasi
Ġpa ukuman
ĠSamp doria
erja an
ĠSouth gate
ĠCr ita
ĠKy ushu
ĠBan ua
Ġremb ug
Ġnyel enggarakakÃ©
Kon f
ĠKag iyatan
Ġhal al
ropol is
Mus lim
ĠDong xiang
War isan
ĠHamengk u
esu it
mun icipality
Ġndad ekake
amo unt
Ġgant inÃ©
Ġnyi apake
andu dongkal
ĠIS BN
ĠLas kar
Ġtumb uk
Ġnar aguna
lagah ima
Ġteng ene
ĠHus sein
ÄĽ n
Re aksi
Ġngra osaken
ĠMajal aban
ĠSik ka
ĠBus kerud
ĠIndon esian
ĠAlas ka
Ġpant es
Ġpred ikat
Ob jek
Ġwond ene
Ġdiil oni
Ġpenyel enggaraan
Ġinstan si
sol ut
Ġkimi awi
Ast ana
ĠHai fa
Ã©part emÃ¨n
Ġlob ak
ĠNAS CAR
ĠMosk ow
Dis ney
ĠAlexand ria
Ġtuj uwan
ĠPall awa
Ġdigant Ã¨kakÃ©
ĠOlympi adÃ©
ĠKuth awinangun
ĠSitub anda
ĠMunt hilan
ĠHeav y
ĠAdo be
ĠBalik papan
ĠNel son
Ġperka kas
ĠMim ika
Ġamf ibi
ĠZamb ia
Ġpedo man
ĠBav aria
ĠJÃ©r man
andhidhik anÃ©
ĠAkers hus
B oy
D ik
D ig
F on
G as
H K
H P
H us
J A
K raton
M b
M entri
O lah
P C
P engg
P uisi
S kala
S endang
T eknik
V en
V ir
W akil
a ing
b org
c u
c omp
d ed
d ai
d onya
e ya
h san
j ogÃ¨d
l irang
m ane
m ins
m anjing
p uluh
r apan
t ator
w ir
w etan
z ie
Ã °
Ø «
à ´
æ Ĺ
Ġ anÃ©
Ġ our
ng at
Ġs itik
Ġs Ã©ni
ar ni
Ġd obel
Ġp anggal
Ġp ick
at madja
Ġl ud
Ġl Ã©wat
Ġm ring
Ġm egah
on line
Ã¨ ti
ah ap
ah atan
ah abatan
Ġka tandh
Ġka gayut
ĠK eg
ĠK id
Ġb le
Ġb elas
Ġb Ã©danÃ©
ĠS reng
ĠS AR
Ġdi a
Ġdi emot
ĠP andhidhikan
Ġw ang
it akake
eng at
ab on
ab ot
ab dian
do or
dh Ã©
Ġng a
Ġng Ã¨ng
el da
ĠB aya
ĠB awah
ĠB anjang
ĠB rie
ro sa
um eneng
ĠM iri
ĠM atius
Ġg enep
ĠT ut
ĠT ert
ĠT ower
ol us
ap o
hi ch
eb e
eb ol
Ġr edh
Ġr awan
Ġr ektor
Ġr angkÃ©
Ġr ujak
Ġr angsangan
ep ungan
ep lok
ac le
ĠN ang
ĠN ami
ek sp
sa e
sa u
ĠW ic
ĠW adhaslintang
ĠC ika
ĠC rist
ĠC ancer
eg u
eg at
Ġu ap
amb en
ĠG ip
ĠG rey
emb ut
emb ali
ĠH A
ĠH amp
ĠH endra
ia ÅĤ
ok ond
Ġkant un
Ġdipun aj
Ġdipun tan
Ġdipun ripta
ot ip
Ġf er
Ġf ib
Ġsak ng
Ġsak benerÃ©
ĠF ath
ĠF av
ĠF Ã¨stival
Ġny ulik
ĠU TC
op las
ip tan
Ġper ak
Ġper ilaku
ti er
uj ian
Ġak h
Ġpr esi
Ġman ik
ĠO kt
ec tive
ĠAm etung
ĠPr et
Ġin ovasi
asar ana
Ġkab ukak
Ġant is
Ġant aran
ĠV erne
Ġpen a
osi tas
eron c
Ġkr u
Ġkr edit
Ġkon stitu
uc ation
ĠAl iran
ĠAl len
ĠAl alak
ĠAl eppo
Ġpang yasa
ĠAn ugerah
Ġkul kas
Ġkaw on
Ġdik ering
Ġput aran
Ã©ng ah
ĠCh un
ĠMar itim
Ġdis erat
Ġses ebatan
Ġpangg urit
erb itan
Ġad id
ev ento
Ġtr esn
Ġpam isahan
Ġmusi bah
ĠSt atistik
Ġsep ar
Ġsp ort
Ġdic ulik
]] -
ĠSur yani
ĠSum abita
inten an
if orm
ĠBl ado
ĠSem in
ĠAd ikoesoemo
Ġ16 5
aks ari
Ġpem akaman
Ġdipunt ambahi
ĠTim ang
ill age
th umb
ame an
Ġres Ã¨p
ĠPro st
ĠBanjar eja
ĠNov i
Ġkem atian
Ġsem ester
ĠLe ipzig
undh ung
undh ul
ĠPat ri
ĠAk ibat
In do
ĠAw ai
ĠQ uar
Ġpol i
Ġpol it
ĠPi eter
ĠPi xar
rad asi
ê§ Į
ĠPen ida
ĠPen awangan
ĠBal itung
abu aran
ĠØ ¯
Ġop rasi
Ġgar am
ĠÙ ±ÙĦ
ĠSab ah
gay utan
sit us
Ġpaw atesan
Ġsub uh
Ġkeb ebasan
Ġmang rove
Ã©b lat
ros baya
Ġkaj eng
Ġkaj ibah
Karang asem
ĠWar ak
Ġpers etujuan
Ġasil ipun
ĠKh ald
ĠKem entrian
ÙĬ Ø©
Ġmaka lah
Ġdipunk iteri
ĠSar mi
ĠBen evento
Ġgen era
Kat rangan
Ġpadh alangan
ĠSen jata
ĠPert iwi
Ġko i
ĠPet e
ĠWis rawa
pat ung
Ang k
rol isis
ĠPac ific
uar y
ĠEd win
sen yawa
ĠUr ang
IN ews
ĠBur k
ĠSid enreng
BB C
ĠHo uston
Ġsil silah
Ġdhuw eni
Ġreg gae
Si do
ĠHal ong
ĠDan ny
Ġnon jol
ĠEm irat
Ġprodh usÃ¨n
Ġram alan
Pl ot
ĠDel ica
ĠArj un
kl op
SI S
Ġresep tor
ĠTar uman
Ġngad ol
ĠRot e
Ġkanc ah
Ġnganc ani
Ġmant ep
Ġprakt ek
Kul it
Ġkarbon at
ĠTum rap
ĠTum apel
á» ĳ
Ġsakab Ã¨hing
ĠUs man
ĠKedhung pring
ĠKaka win
ĠJen ewa
ĠBut ler
Sup er
Ġnyaw ij
ĠWujud Ã©
ĠMr anggÃ¨n
ĠLim rahipun
ĠNig er
Pes awat
Ġgro up
Ġmarkas Ã©
Ġleb ur
ĠRach man
him punan
Ġkasuny atanipun
Ġnukle at
ĠArm strong
ĠHu go
ĠGem olong
ĠIndustri es
ĠUchi ha
Ġdih ubung
Ġdipisah ake
ĠCak ran
ĠKoes woyo
engkap an
Ġred aktur
ĠPolit eknik
Ġtam tama
akl ukan
agh etti
Ġá ¼
ĠAM D
ĠWed arijaksa
Ġnyeb apaken
ĠKent ucky
Chris tian
Ġmot ivasi
Ġperman Ã¨n
Ġngut am
ĠNop ember
sed ulurÃ©
ĠBod eh
Ġdipro ses
abh umi
à¯ į
ĠPanalit Ã¨n
Ġksat ria
ĠÚ ©
Ġcrit anÃ©
Ġparal el
Ġpanguc apan
ĠTajik istan
Ġdipadh akakÃ©
agli ari
Ġmonc Ã¨r
ĠMonten egro
ĠTrav is
ĠJuw iring
gro und
Ġngic alaken
Ġkulin Ã¨r
ĠsÃ©p ak
Ġpamangg ihipun
à¸² à¸
ê¦Ĩ ê¦¤
Ġsekit arÃ©
Ġceng keh
ĠKuto arjo
ekuth uan
Ġnde donga
! âĢĿ
1 12
1 17
A th
B ata
B areng
C erita
E E
E li
F o
G H
G ood
G adis
H F
H S
K w
K y
K isah
L os
L ondon
L ebak
M U
M aja
M ontor
N askah
O P
P y
P angkalan
R is
R Ã©p
S K
S asi
S eri
Z R
a el
b intang
b intik
c ano
d era
f ra
g ag
i os
k uwÃ©
k raton
l b
l embaga
p aken
r Ã©si
r ampilan
s ace
s Ã©jÃ©
t ulis
v ar
w ono
Î ²
Ï ĩ
Ú ¤
Ġ ejaan
an in
Ã© hi
Ġs andhi
Ġs yair
Ġd own
Ġp rov
Ġp olah
Ġp ember
Ġp user
Ġk ori
Ġk ode
al Ã¨kakÃ©
Ġl arik
Ġl ava
Ġm p
Ġm ing
Ġm aya
Ġm esi
Ġm ember
Ġm emen
Ġm abuk
Ġm ampir
am eter
ik on
ah it
Ġt angat
Ġt akhta
Ġka mu
is p
as c
as ara
as tr
as yarakatan
ĠK ha
ĠK udu
ĠK umpeni
Ġb andh
Ġb aking
ad uk
ĠS areng
ĠS lam
ĠS uy
ĠS TI
ĠS ichuan
Ġdi eks
Ġdi dok
ung e
ĠP ubl
ĠP ikatan
ĠP ose
Ġw utah
em s
em Ã©n
it es
it ation
or atif
eng eri
ab ean
Ġng Ã©nÃ©
Ġng idinakÃ©
ĠB I
ro yo
ĠA yat
ĠA IDS
ĠA kadhemi
et no
ĠT rap
ĠT enn
ĠT wo
ĠT logo
es k
ara ya
ĠJ agan
ĠJ ayan
ĠJ arak
ĠJ amu
ol et
ap arwa
Ġj ari
aj uk
Ġr us
Ġr api
Ġr ainÃ©
ep Ã©
ih on
ac ha
ĠN IS
ĠN ederland
ĠN ippon
im ent
ek onomian
ĠL ast
ĠL una
Ġc ro
Ġc akar
Ġc han
ĠR uang
Ġdh ata
id ana
id ium
id ward
ĠG D
ĠG ym
and ez
emb e
ĠH umbang
ok kÃ©
Ġkap Ã©tung
ĠU wa
ip uti
Ġper dh
Ġper intis
ti enne
ob ik
ĠIng gil
Ġpr Ã©si
ic an
ej ah
Ã¨l m
Ġkas t
Ġkas ugihan
Ġdit ar
st Ã¨nsi
Ġant uk
umb ia
Ġkat ind
ern an
ern ova
Ġkr ikil
Ġkr oncong
Ġnj ajah
oc eros
emp o
ĠAl ice
ĠAr ea
Ġpang owahan
Ġwar gan
Ġum ub
Ġum pan
Ġ18 15
ĠCh amber
ch ange
Ġdis edi
Ġngr engkuh
eni us
Ġ6 39
angs aran
ki fli
air ah
Ġpangg iyaran
Ġpeng awal
ring inan
") ;
Ġad on
Ġtin uku
udh i
Ġsp erma
mp l
mp ulan
Ġkag Ã¨t
pr asasti
ĠKar anganom
ĠNur h
Ġkep eksa
Ġkep utusan
ĠBat al
ĠBat angan
Ġkel apa
Ġkel iling
agu ar
Ġdir ung
Ġkuw e
aku ola
ĠNg adireja
Ġtim e
ĠAd icara
ĠMan s
awar sita
ĠKap utusan
di arani
Ġpat en
Ġsang arepÃ©
adeg aken
Ġ14 00
ĠSo er
An ti
ĠSh ir
ĠPar ker
Ġpend ekatan
In ternasional
ili o
ĠBany ak
Kar l
yat anÃ©
Ġbiy antu
Ġgl adhi
ĠUt tar
Ġkons entrasi
Ġjal anan
ĠBal e
Ġtengah ipun
ĠPem atang
Ġser eal
14 0
te it
ĠEn rekang
Kal ireja
ĠTh om
ĠMaj asanga
reng ga
Ġart efak
Ġpendh apat
Ġz odiak
ĠBer au
ĠSuka lila
erta inment
ĠKa ur
ĠKa amanan
ĠMa anyan
tim us
ĠKep il
Ã©b ut
ĠAustr onesia
enth ong
enth Ã¨ng
ĠSas uwÃ©nÃ©
ĠKon ang
dong an
ĠIl l
Ġdipunr esm
ĠHan n
Ġmel alui
ĠSin jai
Ġdipunm ain
Ġdipunm inggahi
ĠNo er
Ġbentuk ipun
pat hi
ĠMon tr
Ġpac angan
Ġpandh angan
ĠBas ket
Ã©bas akÃ©
Ġpur na
Ġpur bakala
ĠAri e
Ġkand ungan
Ġakhir nya
Pen yakit
Par araton
Ġeks ternal
vi er
Ġkompl Ã¨k
Sid aharja
Ġseng it
ĠSumb adra
ĠCom ics
ĠDel hi
ĠDel anggu
ĠRah mat
anth Ã¨ni
Ġyak ni
Ġkain f
ĠKej uaraan
ĠPin rang
tengah ing
ĠUd an
ĠSut awijaya
ĠRich ter
Ġtemb e
Ġdipunj agi
ĠHad es
Dr ama
ĠJu ai
ĠDur Ã¨n
Ġditr esnani
Ġpra upan
ĠMi G
ĠEng ine
ĠSah abat
ĠFri ends
ĠKro ya
ĠCha vacano
ĠHel en
ĠDum adi
Ã¡n dez
ØŃ Ùħ
ĠMay ong
ĠSec ara
Ġindiv idual
Ġba ik
ĠBers ama
ĠMes si
Ġdiset ujoni
Ġdikl ump
Ġnemb e
ĠBatur etna
Nov ember
ĠÃ©l Ã©k
ĠMb ok
Ġpor si
ĠKaliw ira
[...]
